{
  "version": "1.0",
  "truncation": null,
  "padding": null,
  "added_tokens": [
    {
      "id": 0,
      "content": "[UNK]",
      "single_word": false,
      "lstrip": false,
      "rstrip": false,
      "normalized": false,
      "special": true
    },
    {
      "id": 1,
      "content": "[PAD]",
      "single_word": false,
      "lstrip": false,
      "rstrip": false,
      "normalized": false,
      "special": true
    }
  ],
  "normalizer": null,
  "pre_tokenizer": {
    "type": "Sequence",
    "pretokenizers": [
      {
        "type": "WhitespaceSplit"
      },
      {
        "type": "Punctuation",
        "behavior": "Isolated"
      },
      {
        "type": "Digits",
        "individual_digits": false
      }
    ]
  },
  "post_processor": null,
  "decoder": null,
  "model": {
    "type": "BPE",
    "dropout": null,
    "unk_token": "[UNK]",
    "continuing_subword_prefix": null,
    "end_of_word_suffix": null,
    "fuse_unk": false,
    "byte_fallback": false,
    "ignore_merges": false,
    "vocab": {
      "[UNK]": 0,
      "[PAD]": 1,
      "!": 2,
      "\"": 3,
      "#": 4,
      "$": 5,
      "%": 6,
      "&": 7,
      "'": 8,
      "(": 9,
      ")": 10,
      "*": 11,
      "+": 12,
      ",": 13,
      "-": 14,
      ".": 15,
      "/": 16,
      "0": 17,
      "1": 18,
      "2": 19,
      "3": 20,
      "4": 21,
      "5": 22,
      "6": 23,
      "7": 24,
      "8": 25,
      "9": 26,
      ":": 27,
      ";": 28,
      "=": 29,
      ">": 30,
      "?": 31,
      "@": 32,
      "A": 33,
      "B": 34,
      "C": 35,
      "D": 36,
      "E": 37,
      "F": 38,
      "G": 39,
      "H": 40,
      "I": 41,
      "J": 42,
      "K": 43,
      "L": 44,
      "M": 45,
      "N": 46,
      "O": 47,
      "P": 48,
      "Q": 49,
      "R": 50,
      "S": 51,
      "T": 52,
      "U": 53,
      "V": 54,
      "W": 55,
      "X": 56,
      "Y": 57,
      "Z": 58,
      "[": 59,
      "\\": 60,
      "]": 61,
      "^": 62,
      "_": 63,
      "`": 64,
      "a": 65,
      "b": 66,
      "c": 67,
      "d": 68,
      "e": 69,
      "f": 70,
      "g": 71,
      "h": 72,
      "i": 73,
      "j": 74,
      "k": 75,
      "l": 76,
      "m": 77,
      "n": 78,
      "o": 79,
      "p": 80,
      "q": 81,
      "r": 82,
      "s": 83,
      "t": 84,
      "u": 85,
      "v": 86,
      "w": 87,
      "x": 88,
      "y": 89,
      "z": 90,
      "{": 91,
      "|": 92,
      "}": 93,
      "~": 94,
      "¤": 95,
      "·": 96,
      "×": 97,
      "è": 98,
      "é": 99,
      "ê": 100,
      "ó": 101,
      "ˇ": 102,
      "–": 103,
      "—": 104,
      "―": 105,
      "‘": 106,
      "’": 107,
      "“": 108,
      "”": 109,
      "…": 110,
      "※": 111,
      "↘": 112,
      "∩": 113,
      "∶": 114,
      "≒": 115,
      "≠": 116,
      "⊙": 117,
      "⒈": 118,
      "─": 119,
      "│": 120,
      "┌": 121,
      "┐": 122,
      "└": 123,
      "┘": 124,
      "├": 125,
      "┴": 126,
      "┼": 127,
      "╭": 128,
      "╮": 129,
      "╯": 130,
      "╰": 131,
      "◎": 132,
      "★": 133,
      "、": 134,
      "。": 135,
      "〈": 136,
      "〉": 137,
      "《": 138,
      "》": 139,
      "「": 140,
      "」": 141,
      "『": 142,
      "』": 143,
      "【": 144,
      "】": 145,
      "〔": 146,
      "〕": 147,
      "と": 148,
      "に": 149,
      "の": 150,
      "も": 151,
      "一": 152,
      "丁": 153,
      "七": 154,
      "万": 155,
      "丈": 156,
      "三": 157,
      "上": 158,
      "下": 159,
      "不": 160,
      "与": 161,
      "丐": 162,
      "丑": 163,
      "专": 164,
      "且": 165,
      "世": 166,
      "丘": 167,
      "业": 168,
      "丛": 169,
      "东": 170,
      "丝": 171,
      "丞": 172,
      "丟": 173,
      "丢": 174,
      "两": 175,
      "严": 176,
      "並": 177,
      "丧": 178,
      "个": 179,
      "丫": 180,
      "中": 181,
      "丰": 182,
      "串": 183,
      "临": 184,
      "丸": 185,
      "丹": 186,
      "为": 187,
      "主": 188,
      "丽": 189,
      "举": 190,
      "乃": 191,
      "久": 192,
      "么": 193,
      "义": 194,
      "之": 195,
      "乌": 196,
      "乍": 197,
      "乎": 198,
      "乏": 199,
      "乐": 200,
      "乒": 201,
      "乓": 202,
      "乔": 203,
      "乖": 204,
      "乘": 205,
      "九": 206,
      "乞": 207,
      "也": 208,
      "习": 209,
      "乡": 210,
      "书": 211,
      "买": 212,
      "乱": 213,
      "乳": 214,
      "乾": 215,
      "亂": 216,
      "了": 217,
      "予": 218,
      "争": 219,
      "事": 220,
      "二": 221,
      "于": 222,
      "亏": 223,
      "云": 224,
      "互": 225,
      "五": 226,
      "井": 227,
      "亚": 228,
      "些": 229,
      "亟": 230,
      "亡": 231,
      "亢": 232,
      "交": 233,
      "亦": 234,
      "产": 235,
      "亨": 236,
      "享": 237,
      "京": 238,
      "亭": 239,
      "亮": 240,
      "亲": 241,
      "亵": 242,
      "人": 243,
      "亿": 244,
      "什": 245,
      "仁": 246,
      "仅": 247,
      "仆": 248,
      "仇": 249,
      "今": 250,
      "介": 251,
      "仍": 252,
      "从": 253,
      "仑": 254,
      "仓": 255,
      "仔": 256,
      "仕": 257,
      "他": 258,
      "仗": 259,
      "付": 260,
      "仙": 261,
      "代": 262,
      "令": 263,
      "以": 264,
      "仨": 265,
      "仪": 266,
      "们": 267,
      "仰": 268,
      "仲": 269,
      "件": 270,
      "价": 271,
      "任": 272,
      "份": 273,
      "仿": 274,
      "企": 275,
      "伊": 276,
      "伍": 277,
      "伎": 278,
      "伏": 279,
      "伐": 280,
      "休": 281,
      "众": 282,
      "优": 283,
      "伙": 284,
      "会": 285,
      "伞": 286,
      "伟": 287,
      "传": 288,
      "伤": 289,
      "伦": 290,
      "伪": 291,
      "伯": 292,
      "估": 293,
      "伴": 294,
      "伶": 295,
      "伸": 296,
      "似": 297,
      "伽": 298,
      "但": 299,
      "位": 300,
      "低": 301,
      "住": 302,
      "佐": 303,
      "佑": 304,
      "体": 305,
      "何": 306,
      "余": 307,
      "佛": 308,
      "作": 309,
      "你": 310,
      "佣": 311,
      "佩": 312,
      "佬": 313,
      "佳": 314,
      "佼": 315,
      "使": 316,
      "侃": 317,
      "侄": 318,
      "來": 319,
      "侈": 320,
      "例": 321,
      "侍": 322,
      "侏": 323,
      "供": 324,
      "依": 325,
      "侠": 326,
      "侣": 327,
      "侥": 328,
      "侦": 329,
      "侧": 330,
      "侬": 331,
      "侮": 332,
      "侯": 333,
      "侵": 334,
      "侶": 335,
      "便": 336,
      "係": 337,
      "促": 338,
      "俄": 339,
      "俊": 340,
      "俎": 341,
      "俏": 342,
      "俗": 343,
      "俘": 344,
      "俚": 345,
      "保": 346,
      "俞": 347,
      "信": 348,
      "俨": 349,
      "俩": 350,
      "俪": 351,
      "俭": 352,
      "修": 353,
      "俯": 354,
      "俱": 355,
      "俸": 356,
      "俺": 357,
      "個": 358,
      "倍": 359,
      "們": 360,
      "倒": 361,
      "倘": 362,
      "候": 363,
      "倚": 364,
      "借": 365,
      "倡": 366,
      "倦": 367,
      "倩": 368,
      "值": 369,
      "倾": 370,
      "假": 371,
      "偏": 372,
      "做": 373,
      "停": 374,
      "偠": 375,
      "健": 376,
      "偶": 377,
      "偷": 378,
      "偽": 379,
      "偿": 380,
      "傅": 381,
      "備": 382,
      "储": 383,
      "催": 384,
      "傲": 385,
      "傳": 386,
      "傷": 387,
      "傻": 388,
      "僅": 389,
      "像": 390,
      "僚": 391,
      "僧": 392,
      "僵": 393,
      "價": 394,
      "僻": 395,
      "儒": 396,
      "儘": 397,
      "優": 398,
      "儿": 399,
      "兀": 400,
      "允": 401,
      "元": 402,
      "兄": 403,
      "充": 404,
      "兆": 405,
      "先": 406,
      "光": 407,
      "克": 408,
      "免": 409,
      "兑": 410,
      "兒": 411,
      "兔": 412,
      "党": 413,
      "兜": 414,
      "兢": 415,
      "入": 416,
      "內": 417,
      "全": 418,
      "兩": 419,
      "八": 420,
      "公": 421,
      "六": 422,
      "兮": 423,
      "兰": 424,
      "共": 425,
      "关": 426,
      "兴": 427,
      "兵": 428,
      "其": 429,
      "具": 430,
      "典": 431,
      "养": 432,
      "兼": 433,
      "兽": 434,
      "冀": 435,
      "内": 436,
      "冇": 437,
      "冈": 438,
      "冉": 439,
      "册": 440,
      "再": 441,
      "冒": 442,
      "冕": 443,
      "冗": 444,
      "写": 445,
      "军": 446,
      "农": 447,
      "冠": 448,
      "冤": 449,
      "冥": 450,
      "冬": 451,
      "冯": 452,
      "冰": 453,
      "冲": 454,
      "决": 455,
      "况": 456,
      "冷": 457,
      "冻": 458,
      "冼": 459,
      "净": 460,
      "凄": 461,
      "准": 462,
      "凉": 463,
      "凌": 464,
      "减": 465,
      "凑": 466,
      "凛": 467,
      "凝": 468,
      "几": 469,
      "凡": 470,
      "凤": 471,
      "凭": 472,
      "凯": 473,
      "凰": 474,
      "凳": 475,
      "凶": 476,
      "凸": 477,
      "凹": 478,
      "出": 479,
      "击": 480,
      "函": 481,
      "凿": 482,
      "刀": 483,
      "刁": 484,
      "刃": 485,
      "分": 486,
      "切": 487,
      "刊": 488,
      "刑": 489,
      "划": 490,
      "列": 491,
      "刘": 492,
      "则": 493,
      "刚": 494,
      "创": 495,
      "初": 496,
      "删": 497,
      "判": 498,
      "別": 499,
      "刨": 500,
      "利": 501,
      "别": 502,
      "刮": 503,
      "到": 504,
      "制": 505,
      "刷": 506,
      "券": 507,
      "刹": 508,
      "刺": 509,
      "刻": 510,
      "剂": 511,
      "剃": 512,
      "則": 513,
      "削": 514,
      "前": 515,
      "剑": 516,
      "剔": 517,
      "剖": 518,
      "剛": 519,
      "剥": 520,
      "剧": 521,
      "剩": 522,
      "剪": 523,
      "副": 524,
      "割": 525,
      "創": 526,
      "剽": 527,
      "劇": 528,
      "劈": 529,
      "劍": 530,
      "力": 531,
      "劝": 532,
      "办": 533,
      "功": 534,
      "加": 535,
      "务": 536,
      "劣": 537,
      "动": 538,
      "助": 539,
      "努": 540,
      "劫": 541,
      "励": 542,
      "劲": 543,
      "劳": 544,
      "势": 545,
      "勁": 546,
      "勃": 547,
      "勇": 548,
      "勉": 549,
      "勋": 550,
      "勒": 551,
      "動": 552,
      "勘": 553,
      "務": 554,
      "勤": 555,
      "勲": 556,
      "勺": 557,
      "勾": 558,
      "勿": 559,
      "匀": 560,
      "包": 561,
      "匆": 562,
      "匈": 563,
      "化": 564,
      "北": 565,
      "匙": 566,
      "匝": 567,
      "匠": 568,
      "匪": 569,
      "匮": 570,
      "匹": 571,
      "区": 572,
      "医": 573,
      "匿": 574,
      "區": 575,
      "十": 576,
      "千": 577,
      "升": 578,
      "午": 579,
      "卉": 580,
      "半": 581,
      "华": 582,
      "协": 583,
      "卑": 584,
      "卒": 585,
      "卓": 586,
      "協": 587,
      "单": 588,
      "卖": 589,
      "南": 590,
      "博": 591,
      "卜": 592,
      "占": 593,
      "卡": 594,
      "卢": 595,
      "卦": 596,
      "卧": 597,
      "卫": 598,
      "印": 599,
      "危": 600,
      "即": 601,
      "却": 602,
      "卵": 603,
      "卷": 604,
      "卸": 605,
      "卻": 606,
      "厂": 607,
      "厅": 608,
      "历": 609,
      "厉": 610,
      "压": 611,
      "厌": 612,
      "厕": 613,
      "厘": 614,
      "厚": 615,
      "原": 616,
      "厢": 617,
      "厦": 618,
      "厨": 619,
      "厮": 620,
      "去": 621,
      "县": 622,
      "参": 623,
      "參": 624,
      "又": 625,
      "叉": 626,
      "及": 627,
      "友": 628,
      "双": 629,
      "反": 630,
      "发": 631,
      "叔": 632,
      "取": 633,
      "受": 634,
      "变": 635,
      "叙": 636,
      "叛": 637,
      "叠": 638,
      "口": 639,
      "古": 640,
      "句": 641,
      "另": 642,
      "叨": 643,
      "只": 644,
      "叫": 645,
      "召": 646,
      "叭": 647,
      "叮": 648,
      "可": 649,
      "台": 650,
      "史": 651,
      "右": 652,
      "叶": 653,
      "号": 654,
      "司": 655,
      "叹": 656,
      "叻": 657,
      "叼": 658,
      "叽": 659,
      "吁": 660,
      "吃": 661,
      "各": 662,
      "合": 663,
      "吉": 664,
      "吊": 665,
      "吋": 666,
      "同": 667,
      "名": 668,
      "后": 669,
      "吐": 670,
      "向": 671,
      "吒": 672,
      "吓": 673,
      "吕": 674,
      "吗": 675,
      "君": 676,
      "吝": 677,
      "吞": 678,
      "吟": 679,
      "否": 680,
      "吧": 681,
      "含": 682,
      "听": 683,
      "吭": 684,
      "启": 685,
      "吱": 686,
      "吴": 687,
      "吵": 688,
      "吸": 689,
      "吹": 690,
      "吻": 691,
      "吼": 692,
      "吾": 693,
      "呀": 694,
      "呆": 695,
      "呈": 696,
      "告": 697,
      "呐": 698,
      "呓": 699,
      "呕": 700,
      "呗": 701,
      "员": 702,
      "呛": 703,
      "呜": 704,
      "呢": 705,
      "呦": 706,
      "周": 707,
      "味": 708,
      "呵": 709,
      "呸": 710,
      "呻": 711,
      "呼": 712,
      "命": 713,
      "咀": 714,
      "咋": 715,
      "和": 716,
      "咏": 717,
      "咒": 718,
      "咔": 719,
      "咕": 720,
      "咖": 721,
      "咚": 722,
      "咛": 723,
      "咣": 724,
      "咤": 725,
      "咦": 726,
      "咧": 727,
      "咨": 728,
      "咩": 729,
      "咪": 730,
      "咬": 731,
      "咯": 732,
      "咱": 733,
      "咳": 734,
      "咸": 735,
      "咽": 736,
      "咿": 737,
      "哀": 738,
      "品": 739,
      "哄": 740,
      "哆": 741,
      "哇": 742,
      "哈": 743,
      "哉": 744,
      "响": 745,
      "哎": 746,
      "哑": 747,
      "哒": 748,
      "哗": 749,
      "哟": 750,
      "員": 751,
      "哥": 752,
      "哦": 753,
      "哨": 754,
      "哩": 755,
      "哪": 756,
      "哭": 757,
      "哲": 758,
      "哼": 759,
      "唇": 760,
      "唉": 761,
      "唏": 762,
      "唐": 763,
      "唔": 764,
      "唠": 765,
      "唤": 766,
      "唧": 767,
      "唬": 768,
      "售": 769,
      "唯": 770,
      "唱": 771,
      "啃": 772,
      "啄": 773,
      "商": 774,
      "啊": 775,
      "問": 776,
      "啕": 777,
      "啜": 778,
      "啡": 779,
      "啥": 780,
      "啦": 781,
      "啪": 782,
      "啫": 783,
      "啬": 784,
      "啰": 785,
      "啸": 786,
      "啼": 787,
      "喂": 788,
      "喃": 789,
      "善": 790,
      "喇": 791,
      "喉": 792,
      "喊": 793,
      "喋": 794,
      "喔": 795,
      "喘": 796,
      "喜": 797,
      "喝": 798,
      "喧": 799,
      "單": 800,
      "喱": 801,
      "喳": 802,
      "喷": 803,
      "喻": 804,
      "喽": 805,
      "嗄": 806,
      "嗅": 807,
      "嗎": 808,
      "嗒": 809,
      "嗓": 810,
      "嗜": 811,
      "嗟": 812,
      "嗡": 813,
      "嗦": 814,
      "嗨": 815,
      "嗬": 816,
      "嗯": 817,
      "嗲": 818,
      "嗽": 819,
      "嘆": 820,
      "嘉": 821,
      "嘎": 822,
      "嘗": 823,
      "嘘": 824,
      "嘛": 825,
      "嘞": 826,
      "嘟": 827,
      "嘢": 828,
      "嘲": 829,
      "嘴": 830,
      "嘹": 831,
      "嘻": 832,
      "嘿": 833,
      "噎": 834,
      "噜": 835,
      "噠": 836,
      "噢": 837,
      "器": 838,
      "噩": 839,
      "噪": 840,
      "噬": 841,
      "噱": 842,
      "噶": 843,
      "噹": 844,
      "噼": 845,
      "嚎": 846,
      "嚣": 847,
      "嚴": 848,
      "嚷": 849,
      "嚼": 850,
      "囊": 851,
      "囍": 852,
      "囔": 853,
      "四": 854,
      "回": 855,
      "因": 856,
      "囡": 857,
      "团": 858,
      "囧": 859,
      "囫": 860,
      "园": 861,
      "困": 862,
      "围": 863,
      "囵": 864,
      "固": 865,
      "国": 866,
      "图": 867,
      "圆": 868,
      "圈": 869,
      "國": 870,
      "圍": 871,
      "圓": 872,
      "圖": 873,
      "土": 874,
      "圣": 875,
      "在": 876,
      "圭": 877,
      "地": 878,
      "圳": 879,
      "场": 880,
      "圻": 881,
      "圾": 882,
      "址": 883,
      "坂": 884,
      "均": 885,
      "坊": 886,
      "坍": 887,
      "坎": 888,
      "坏": 889,
      "坐": 890,
      "坑": 891,
      "块": 892,
      "坚": 893,
      "坛": 894,
      "坝": 895,
      "坞": 896,
      "坠": 897,
      "坡": 898,
      "坤": 899,
      "坦": 900,
      "坷": 901,
      "垂": 902,
      "垃": 903,
      "垄": 904,
      "型": 905,
      "垠": 906,
      "垫": 907,
      "垮": 908,
      "埂": 909,
      "埃": 910,
      "埋": 911,
      "城": 912,
      "埔": 913,
      "埙": 914,
      "域": 915,
      "培": 916,
      "基": 917,
      "堂": 918,
      "堆": 919,
      "堡": 920,
      "堤": 921,
      "堪": 922,
      "報": 923,
      "場": 924,
      "堵": 925,
      "塌": 926,
      "塑": 927,
      "塔": 928,
      "塘": 929,
      "塞": 930,
      "塤": 931,
      "填": 932,
      "塵": 933,
      "境": 934,
      "墓": 935,
      "墙": 936,
      "增": 937,
      "墨": 938,
      "壁": 939,
      "壓": 940,
      "壕": 941,
      "壞": 942,
      "壤": 943,
      "士": 944,
      "壮": 945,
      "声": 946,
      "壳": 947,
      "壶": 948,
      "壹": 949,
      "处": 950,
      "备": 951,
      "复": 952,
      "夏": 953,
      "夕": 954,
      "外": 955,
      "多": 956,
      "夜": 957,
      "够": 958,
      "夠": 959,
      "大": 960,
      "天": 961,
      "太": 962,
      "夫": 963,
      "央": 964,
      "失": 965,
      "头": 966,
      "夷": 967,
      "夸": 968,
      "夹": 969,
      "夺": 970,
      "夾": 971,
      "奂": 972,
      "奄": 973,
      "奇": 974,
      "奈": 975,
      "奉": 976,
      "奋": 977,
      "奎": 978,
      "奏": 979,
      "契": 980,
      "奔": 981,
      "奕": 982,
      "奖": 983,
      "套": 984,
      "奠": 985,
      "奢": 986,
      "奥": 987,
      "女": 988,
      "奴": 989,
      "奶": 990,
      "奸": 991,
      "她": 992,
      "好": 993,
      "如": 994,
      "妃": 995,
      "妄": 996,
      "妆": 997,
      "妇": 998,
      "妈": 999,
      "妍": 1000,
      "妒": 1001,
      "妖": 1002,
      "妙": 1003,
      "妞": 1004,
      "妥": 1005,
      "妨": 1006,
      "妮": 1007,
      "妲": 1008,
      "妹": 1009,
      "妻": 1010,
      "姆": 1011,
      "姊": 1012,
      "始": 1013,
      "姐": 1014,
      "姑": 1015,
      "姓": 1016,
      "委": 1017,
      "姚": 1018,
      "姜": 1019,
      "姥": 1020,
      "姨": 1021,
      "姬": 1022,
      "姻": 1023,
      "姿": 1024,
      "威": 1025,
      "娃": 1026,
      "娅": 1027,
      "娇": 1028,
      "娑": 1029,
      "娓": 1030,
      "娘": 1031,
      "娜": 1032,
      "娟": 1033,
      "娥": 1034,
      "娩": 1035,
      "娱": 1036,
      "娴": 1037,
      "娶": 1038,
      "婆": 1039,
      "婉": 1040,
      "婕": 1041,
      "婚": 1042,
      "婪": 1043,
      "婴": 1044,
      "婷": 1045,
      "婿": 1046,
      "媒": 1047,
      "媚": 1048,
      "媲": 1049,
      "媳": 1050,
      "媽": 1051,
      "嫁": 1052,
      "嫂": 1053,
      "嫉": 1054,
      "嫌": 1055,
      "嫣": 1056,
      "嫩": 1057,
      "嬅": 1058,
      "嬉": 1059,
      "嬛": 1060,
      "子": 1061,
      "孑": 1062,
      "孔": 1063,
      "孕": 1064,
      "字": 1065,
      "存": 1066,
      "孙": 1067,
      "孚": 1068,
      "孝": 1069,
      "孟": 1070,
      "季": 1071,
      "孤": 1072,
      "学": 1073,
      "孩": 1074,
      "孪": 1075,
      "孰": 1076,
      "學": 1077,
      "孽": 1078,
      "宁": 1079,
      "它": 1080,
      "宅": 1081,
      "宇": 1082,
      "守": 1083,
      "安": 1084,
      "宋": 1085,
      "完": 1086,
      "宏": 1087,
      "宕": 1088,
      "宗": 1089,
      "官": 1090,
      "宙": 1091,
      "定": 1092,
      "宛": 1093,
      "宜": 1094,
      "宝": 1095,
      "实": 1096,
      "宠": 1097,
      "审": 1098,
      "客": 1099,
      "宣": 1100,
      "室": 1101,
      "宥": 1102,
      "宪": 1103,
      "宫": 1104,
      "宰": 1105,
      "害": 1106,
      "宴": 1107,
      "宵": 1108,
      "家": 1109,
      "容": 1110,
      "宽": 1111,
      "宾": 1112,
      "宿": 1113,
      "寂": 1114,
      "寄": 1115,
      "密": 1116,
      "寇": 1117,
      "富": 1118,
      "寐": 1119,
      "寒": 1120,
      "寓": 1121,
      "寝": 1122,
      "寞": 1123,
      "察": 1124,
      "寡": 1125,
      "寥": 1126,
      "實": 1127,
      "寨": 1128,
      "寫": 1129,
      "寰": 1130,
      "寶": 1131,
      "寸": 1132,
      "对": 1133,
      "寻": 1134,
      "导": 1135,
      "寿": 1136,
      "封": 1137,
      "射": 1138,
      "将": 1139,
      "將": 1140,
      "專": 1141,
      "尊": 1142,
      "尋": 1143,
      "對": 1144,
      "導": 1145,
      "小": 1146,
      "少": 1147,
      "尔": 1148,
      "尖": 1149,
      "尘": 1150,
      "尚": 1151,
      "尝": 1152,
      "尤": 1153,
      "尧": 1154,
      "尬": 1155,
      "就": 1156,
      "尴": 1157,
      "尸": 1158,
      "尹": 1159,
      "尺": 1160,
      "尻": 1161,
      "尼": 1162,
      "尽": 1163,
      "尾": 1164,
      "尿": 1165,
      "局": 1166,
      "屁": 1167,
      "层": 1168,
      "居": 1169,
      "屈": 1170,
      "屉": 1171,
      "届": 1172,
      "屋": 1173,
      "屎": 1174,
      "屏": 1175,
      "屑": 1176,
      "展": 1177,
      "属": 1178,
      "屠": 1179,
      "屡": 1180,
      "層": 1181,
      "履": 1182,
      "屯": 1183,
      "山": 1184,
      "屿": 1185,
      "岁": 1186,
      "岂": 1187,
      "岔": 1188,
      "岗": 1189,
      "岚": 1190,
      "岛": 1191,
      "岩": 1192,
      "岭": 1193,
      "岳": 1194,
      "岸": 1195,
      "峥": 1196,
      "峨": 1197,
      "峯": 1198,
      "峰": 1199,
      "峻": 1200,
      "崇": 1201,
      "崎": 1202,
      "崔": 1203,
      "崛": 1204,
      "崩": 1205,
      "崭": 1206,
      "嵋": 1207,
      "嵌": 1208,
      "嵘": 1209,
      "巅": 1210,
      "巍": 1211,
      "川": 1212,
      "州": 1213,
      "巡": 1214,
      "巢": 1215,
      "工": 1216,
      "左": 1217,
      "巧": 1218,
      "巨": 1219,
      "巩": 1220,
      "巫": 1221,
      "差": 1222,
      "己": 1223,
      "已": 1224,
      "巴": 1225,
      "巷": 1226,
      "巾": 1227,
      "币": 1228,
      "市": 1229,
      "布": 1230,
      "帅": 1231,
      "帆": 1232,
      "师": 1233,
      "希": 1234,
      "帐": 1235,
      "帕": 1236,
      "帖": 1237,
      "帘": 1238,
      "帜": 1239,
      "帝": 1240,
      "帥": 1241,
      "带": 1242,
      "帧": 1243,
      "師": 1244,
      "席": 1245,
      "帮": 1246,
      "帶": 1247,
      "常": 1248,
      "帽": 1249,
      "幅": 1250,
      "幌": 1251,
      "幕": 1252,
      "幫": 1253,
      "干": 1254,
      "平": 1255,
      "年": 1256,
      "并": 1257,
      "幸": 1258,
      "幹": 1259,
      "幻": 1260,
      "幼": 1261,
      "幽": 1262,
      "幾": 1263,
      "广": 1264,
      "庄": 1265,
      "庆": 1266,
      "庇": 1267,
      "床": 1268,
      "序": 1269,
      "庐": 1270,
      "库": 1271,
      "应": 1272,
      "底": 1273,
      "店": 1274,
      "庙": 1275,
      "庚": 1276,
      "府": 1277,
      "庞": 1278,
      "废": 1279,
      "度": 1280,
      "座": 1281,
      "庭": 1282,
      "庵": 1283,
      "康": 1284,
      "庸": 1285,
      "廉": 1286,
      "廓": 1287,
      "廖": 1288,
      "廣": 1289,
      "延": 1290,
      "廷": 1291,
      "建": 1292,
      "廿": 1293,
      "开": 1294,
      "异": 1295,
      "弃": 1296,
      "弄": 1297,
      "弈": 1298,
      "弊": 1299,
      "弋": 1300,
      "式": 1301,
      "弓": 1302,
      "引": 1303,
      "弗": 1304,
      "弘": 1305,
      "弛": 1306,
      "弟": 1307,
      "张": 1308,
      "弥": 1309,
      "弦": 1310,
      "弧": 1311,
      "弯": 1312,
      "弱": 1313,
      "張": 1314,
      "強": 1315,
      "弹": 1316,
      "强": 1317,
      "归": 1318,
      "当": 1319,
      "录": 1320,
      "彗": 1321,
      "形": 1322,
      "彩": 1323,
      "彪": 1324,
      "彬": 1325,
      "彭": 1326,
      "彰": 1327,
      "影": 1328,
      "彷": 1329,
      "役": 1330,
      "彻": 1331,
      "彼": 1332,
      "彿": 1333,
      "往": 1334,
      "征": 1335,
      "径": 1336,
      "待": 1337,
      "很": 1338,
      "徉": 1339,
      "徊": 1340,
      "律": 1341,
      "後": 1342,
      "徐": 1343,
      "徑": 1344,
      "徒": 1345,
      "得": 1346,
      "徘": 1347,
      "徙": 1348,
      "徜": 1349,
      "御": 1350,
      "徨": 1351,
      "循": 1352,
      "微": 1353,
      "德": 1354,
      "徽": 1355,
      "心": 1356,
      "必": 1357,
      "忆": 1358,
      "忌": 1359,
      "忍": 1360,
      "忐": 1361,
      "忑": 1362,
      "忒": 1363,
      "志": 1364,
      "忘": 1365,
      "忙": 1366,
      "忠": 1367,
      "忧": 1368,
      "快": 1369,
      "念": 1370,
      "忽": 1371,
      "怀": 1372,
      "态": 1373,
      "怅": 1374,
      "怆": 1375,
      "怎": 1376,
      "怒": 1377,
      "怕": 1378,
      "怖": 1379,
      "怜": 1380,
      "思": 1381,
      "怠": 1382,
      "怡": 1383,
      "急": 1384,
      "性": 1385,
      "怨": 1386,
      "怪": 1387,
      "怯": 1388,
      "怹": 1389,
      "总": 1390,
      "恋": 1391,
      "恍": 1392,
      "恐": 1393,
      "恒": 1394,
      "恕": 1395,
      "恢": 1396,
      "恤": 1397,
      "恨": 1398,
      "恩": 1399,
      "恬": 1400,
      "恭": 1401,
      "息": 1402,
      "恰": 1403,
      "恳": 1404,
      "恶": 1405,
      "恸": 1406,
      "恼": 1407,
      "悄": 1408,
      "悉": 1409,
      "悍": 1410,
      "悔": 1411,
      "悖": 1412,
      "悚": 1413,
      "悟": 1414,
      "悠": 1415,
      "患": 1416,
      "悦": 1417,
      "您": 1418,
      "悬": 1419,
      "悲": 1420,
      "悴": 1421,
      "悶": 1422,
      "悸": 1423,
      "情": 1424,
      "惆": 1425,
      "惊": 1426,
      "惋": 1427,
      "惑": 1428,
      "惕": 1429,
      "惘": 1430,
      "惚": 1431,
      "惜": 1432,
      "惟": 1433,
      "惠": 1434,
      "惦": 1435,
      "惧": 1436,
      "惨": 1437,
      "惩": 1438,
      "惪": 1439,
      "惫": 1440,
      "惬": 1441,
      "惭": 1442,
      "惯": 1443,
      "想": 1444,
      "惹": 1445,
      "惺": 1446,
      "愁": 1447,
      "愈": 1448,
      "愉": 1449,
      "意": 1450,
      "愕": 1451,
      "愚": 1452,
      "愛": 1453,
      "感": 1454,
      "愤": 1455,
      "愧": 1456,
      "愿": 1457,
      "慈": 1458,
      "態": 1459,
      "慌": 1460,
      "慎": 1461,
      "慑": 1462,
      "慕": 1463,
      "慢": 1464,
      "慧": 1465,
      "慨": 1466,
      "慮": 1467,
      "慰": 1468,
      "慵": 1469,
      "憂": 1470,
      "憎": 1471,
      "憔": 1472,
      "憧": 1473,
      "憨": 1474,
      "憩": 1475,
      "憬": 1476,
      "憾": 1477,
      "懂": 1478,
      "懈": 1479,
      "應": 1480,
      "懊": 1481,
      "懋": 1482,
      "懑": 1483,
      "懒": 1484,
      "懦": 1485,
      "懵": 1486,
      "懶": 1487,
      "懿": 1488,
      "戀": 1489,
      "戈": 1490,
      "戍": 1491,
      "戏": 1492,
      "成": 1493,
      "我": 1494,
      "戒": 1495,
      "或": 1496,
      "战": 1497,
      "戚": 1498,
      "戛": 1499,
      "戟": 1500,
      "截": 1501,
      "戮": 1502,
      "戰": 1503,
      "戲": 1504,
      "戴": 1505,
      "户": 1506,
      "房": 1507,
      "所": 1508,
      "扁": 1509,
      "扇": 1510,
      "扉": 1511,
      "手": 1512,
      "才": 1513,
      "扎": 1514,
      "扑": 1515,
      "扒": 1516,
      "打": 1517,
      "扔": 1518,
      "托": 1519,
      "扛": 1520,
      "扣": 1521,
      "执": 1522,
      "扩": 1523,
      "扫": 1524,
      "扬": 1525,
      "扭": 1526,
      "扮": 1527,
      "扯": 1528,
      "扰": 1529,
      "扶": 1530,
      "批": 1531,
      "扼": 1532,
      "找": 1533,
      "承": 1534,
      "技": 1535,
      "抄": 1536,
      "抉": 1537,
      "把": 1538,
      "抑": 1539,
      "抒": 1540,
      "抓": 1541,
      "投": 1542,
      "抖": 1543,
      "抗": 1544,
      "折": 1545,
      "抚": 1546,
      "抛": 1547,
      "抠": 1548,
      "抢": 1549,
      "护": 1550,
      "报": 1551,
      "披": 1552,
      "抬": 1553,
      "抱": 1554,
      "抵": 1555,
      "抹": 1556,
      "抽": 1557,
      "拂": 1558,
      "担": 1559,
      "拆": 1560,
      "拈": 1561,
      "拉": 1562,
      "拌": 1563,
      "拍": 1564,
      "拎": 1565,
      "拐": 1566,
      "拒": 1567,
      "拓": 1568,
      "拔": 1569,
      "拖": 1570,
      "拗": 1571,
      "拘": 1572,
      "拙": 1573,
      "招": 1574,
      "拜": 1575,
      "拟": 1576,
      "拢": 1577,
      "拣": 1578,
      "拥": 1579,
      "拦": 1580,
      "拧": 1581,
      "拨": 1582,
      "择": 1583,
      "括": 1584,
      "拭": 1585,
      "拮": 1586,
      "拯": 1587,
      "拳": 1588,
      "拷": 1589,
      "拼": 1590,
      "拾": 1591,
      "拿": 1592,
      "持": 1593,
      "挂": 1594,
      "指": 1595,
      "按": 1596,
      "挎": 1597,
      "挑": 1598,
      "挖": 1599,
      "挚": 1600,
      "挞": 1601,
      "挠": 1602,
      "挡": 1603,
      "挣": 1604,
      "挤": 1605,
      "挥": 1606,
      "挨": 1607,
      "挪": 1608,
      "挫": 1609,
      "振": 1610,
      "挲": 1611,
      "挺": 1612,
      "挽": 1613,
      "捂": 1614,
      "捆": 1615,
      "捉": 1616,
      "捏": 1617,
      "捐": 1618,
      "捕": 1619,
      "捞": 1620,
      "损": 1621,
      "捡": 1622,
      "换": 1623,
      "捣": 1624,
      "捧": 1625,
      "据": 1626,
      "捱": 1627,
      "捷": 1628,
      "掀": 1629,
      "掂": 1630,
      "授": 1631,
      "掉": 1632,
      "掌": 1633,
      "掏": 1634,
      "掐": 1635,
      "排": 1636,
      "掘": 1637,
      "掠": 1638,
      "探": 1639,
      "接": 1640,
      "控": 1641,
      "推": 1642,
      "掩": 1643,
      "措": 1644,
      "掰": 1645,
      "掷": 1646,
      "掺": 1647,
      "揈": 1648,
      "揉": 1649,
      "描": 1650,
      "提": 1651,
      "揑": 1652,
      "插": 1653,
      "換": 1654,
      "握": 1655,
      "揣": 1656,
      "揪": 1657,
      "揭": 1658,
      "揮": 1659,
      "援": 1660,
      "揽": 1661,
      "揾": 1662,
      "搁": 1663,
      "搅": 1664,
      "損": 1665,
      "搜": 1666,
      "搞": 1667,
      "搪": 1668,
      "搬": 1669,
      "搭": 1670,
      "搶": 1671,
      "携": 1672,
      "摄": 1673,
      "摆": 1674,
      "摇": 1675,
      "摊": 1676,
      "摔": 1677,
      "摘": 1678,
      "摞": 1679,
      "摧": 1680,
      "摩": 1681,
      "摸": 1682,
      "摹": 1683,
      "撇": 1684,
      "撑": 1685,
      "撒": 1686,
      "撕": 1687,
      "撞": 1688,
      "撤": 1689,
      "播": 1690,
      "撰": 1691,
      "撼": 1692,
      "撿": 1693,
      "擁": 1694,
      "擂": 1695,
      "擅": 1696,
      "擇": 1697,
      "擋": 1698,
      "操": 1699,
      "擎": 1700,
      "擔": 1701,
      "據": 1702,
      "擞": 1703,
      "擦": 1704,
      "擬": 1705,
      "攀": 1706,
      "攒": 1707,
      "攥": 1708,
      "支": 1709,
      "收": 1710,
      "改": 1711,
      "攻": 1712,
      "放": 1713,
      "政": 1714,
      "故": 1715,
      "效": 1716,
      "敌": 1717,
      "敏": 1718,
      "救": 1719,
      "敘": 1720,
      "教": 1721,
      "敛": 1722,
      "敞": 1723,
      "敢": 1724,
      "散": 1725,
      "敦": 1726,
      "敬": 1727,
      "数": 1728,
      "敲": 1729,
      "整": 1730,
      "敷": 1731,
      "數": 1732,
      "文": 1733,
      "斋": 1734,
      "斌": 1735,
      "斑": 1736,
      "斗": 1737,
      "料": 1738,
      "斜": 1739,
      "斟": 1740,
      "斤": 1741,
      "斥": 1742,
      "斧": 1743,
      "斩": 1744,
      "断": 1745,
      "斯": 1746,
      "新": 1747,
      "斷": 1748,
      "方": 1749,
      "於": 1750,
      "施": 1751,
      "旁": 1752,
      "旅": 1753,
      "旋": 1754,
      "旌": 1755,
      "族": 1756,
      "旗": 1757,
      "无": 1758,
      "既": 1759,
      "日": 1760,
      "旦": 1761,
      "旧": 1762,
      "旨": 1763,
      "早": 1764,
      "旬": 1765,
      "旭": 1766,
      "旮": 1767,
      "旯": 1768,
      "旱": 1769,
      "时": 1770,
      "旷": 1771,
      "旺": 1772,
      "昂": 1773,
      "昆": 1774,
      "昌": 1775,
      "明": 1776,
      "昏": 1777,
      "易": 1778,
      "昔": 1779,
      "昕": 1780,
      "星": 1781,
      "映": 1782,
      "春": 1783,
      "昧": 1784,
      "昨": 1785,
      "昭": 1786,
      "是": 1787,
      "昵": 1788,
      "显": 1789,
      "時": 1790,
      "晃": 1791,
      "晋": 1792,
      "晒": 1793,
      "晓": 1794,
      "晕": 1795,
      "晚": 1796,
      "晤": 1797,
      "晦": 1798,
      "晨": 1799,
      "普": 1800,
      "景": 1801,
      "晰": 1802,
      "晴": 1803,
      "晶": 1804,
      "智": 1805,
      "晾": 1806,
      "暂": 1807,
      "暌": 1808,
      "暑": 1809,
      "暖": 1810,
      "暗": 1811,
      "暧": 1812,
      "暫": 1813,
      "暮": 1814,
      "暴": 1815,
      "曙": 1816,
      "曝": 1817,
      "曰": 1818,
      "曲": 1819,
      "更": 1820,
      "書": 1821,
      "曹": 1822,
      "曼": 1823,
      "曾": 1824,
      "替": 1825,
      "最": 1826,
      "會": 1827,
      "月": 1828,
      "有": 1829,
      "朋": 1830,
      "服": 1831,
      "朔": 1832,
      "朗": 1833,
      "望": 1834,
      "朝": 1835,
      "期": 1836,
      "朦": 1837,
      "木": 1838,
      "未": 1839,
      "末": 1840,
      "本": 1841,
      "术": 1842,
      "朱": 1843,
      "朴": 1844,
      "朵": 1845,
      "机": 1846,
      "朽": 1847,
      "杀": 1848,
      "杂": 1849,
      "权": 1850,
      "杆": 1851,
      "杈": 1852,
      "杉": 1853,
      "李": 1854,
      "材": 1855,
      "村": 1856,
      "杖": 1857,
      "杜": 1858,
      "束": 1859,
      "杠": 1860,
      "条": 1861,
      "来": 1862,
      "杨": 1863,
      "杭": 1864,
      "杯": 1865,
      "杰": 1866,
      "東": 1867,
      "杳": 1868,
      "松": 1869,
      "板": 1870,
      "极": 1871,
      "构": 1872,
      "枉": 1873,
      "析": 1874,
      "枕": 1875,
      "林": 1876,
      "枚": 1877,
      "果": 1878,
      "枝": 1879,
      "枣": 1880,
      "枪": 1881,
      "枫": 1882,
      "枭": 1883,
      "枯": 1884,
      "架": 1885,
      "柄": 1886,
      "柏": 1887,
      "某": 1888,
      "染": 1889,
      "柔": 1890,
      "柜": 1891,
      "柠": 1892,
      "查": 1893,
      "柯": 1894,
      "柱": 1895,
      "柳": 1896,
      "柴": 1897,
      "标": 1898,
      "栈": 1899,
      "栋": 1900,
      "栏": 1901,
      "树": 1902,
      "栗": 1903,
      "校": 1904,
      "栩": 1905,
      "样": 1906,
      "核": 1907,
      "根": 1908,
      "格": 1909,
      "栽": 1910,
      "栾": 1911,
      "桂": 1912,
      "桃": 1913,
      "框": 1914,
      "案": 1915,
      "桌": 1916,
      "桑": 1917,
      "桓": 1918,
      "桔": 1919,
      "桢": 1920,
      "档": 1921,
      "桥": 1922,
      "桦": 1923,
      "桩": 1924,
      "桶": 1925,
      "梁": 1926,
      "梅": 1927,
      "梗": 1928,
      "條": 1929,
      "梦": 1930,
      "梨": 1931,
      "梭": 1932,
      "梯": 1933,
      "械": 1934,
      "梳": 1935,
      "梵": 1936,
      "检": 1937,
      "棉": 1938,
      "棋": 1939,
      "棍": 1940,
      "棒": 1941,
      "棚": 1942,
      "棠": 1943,
      "森": 1944,
      "棱": 1945,
      "棵": 1946,
      "棺": 1947,
      "椅": 1948,
      "植": 1949,
      "椒": 1950,
      "椰": 1951,
      "楂": 1952,
      "楔": 1953,
      "楚": 1954,
      "楠": 1955,
      "業": 1956,
      "楷": 1957,
      "楼": 1958,
      "概": 1959,
      "榛": 1960,
      "榜": 1961,
      "榨": 1962,
      "榴": 1963,
      "榷": 1964,
      "槃": 1965,
      "槍": 1966,
      "槐": 1967,
      "槽": 1968,
      "樂": 1969,
      "樓": 1970,
      "標": 1971,
      "樟": 1972,
      "模": 1973,
      "樣": 1974,
      "横": 1975,
      "樫": 1976,
      "樱": 1977,
      "橘": 1978,
      "橙": 1979,
      "機": 1980,
      "橡": 1981,
      "橱": 1982,
      "檐": 1983,
      "檔": 1984,
      "檬": 1985,
      "欠": 1986,
      "次": 1987,
      "欢": 1988,
      "欣": 1989,
      "欧": 1990,
      "欲": 1991,
      "欺": 1992,
      "款": 1993,
      "歇": 1994,
      "歉": 1995,
      "歌": 1996,
      "歖": 1997,
      "歡": 1998,
      "止": 1999,
      "正": 2000,
      "此": 2001,
      "步": 2002,
      "武": 2003,
      "歧": 2004,
      "歪": 2005,
      "歷": 2006,
      "歹": 2007,
      "死": 2008,
      "殄": 2009,
      "殆": 2010,
      "殊": 2011,
      "残": 2012,
      "殖": 2013,
      "殴": 2014,
      "段": 2015,
      "殿": 2016,
      "毁": 2017,
      "毅": 2018,
      "毋": 2019,
      "母": 2020,
      "每": 2021,
      "毒": 2022,
      "比": 2023,
      "毕": 2024,
      "毙": 2025,
      "毛": 2026,
      "毫": 2027,
      "毯": 2028,
      "氏": 2029,
      "民": 2030,
      "氓": 2031,
      "气": 2032,
      "氙": 2033,
      "氛": 2034,
      "氣": 2035,
      "氧": 2036,
      "水": 2037,
      "永": 2038,
      "汀": 2039,
      "汁": 2040,
      "求": 2041,
      "汇": 2042,
      "汉": 2043,
      "汗": 2044,
      "汙": 2045,
      "江": 2046,
      "池": 2047,
      "污": 2048,
      "汤": 2049,
      "汪": 2050,
      "汰": 2051,
      "汲": 2052,
      "汽": 2053,
      "汾": 2054,
      "沁": 2055,
      "沃": 2056,
      "沈": 2057,
      "沉": 2058,
      "沌": 2059,
      "沐": 2060,
      "沒": 2061,
      "沓": 2062,
      "沖": 2063,
      "沙": 2064,
      "沛": 2065,
      "沟": 2066,
      "没": 2067,
      "沥": 2068,
      "沦": 2069,
      "沧": 2070,
      "沫": 2071,
      "沮": 2072,
      "河": 2073,
      "沸": 2074,
      "油": 2075,
      "治": 2076,
      "沾": 2077,
      "沿": 2078,
      "況": 2079,
      "泄": 2080,
      "泉": 2081,
      "泊": 2082,
      "法": 2083,
      "泛": 2084,
      "泡": 2085,
      "波": 2086,
      "泣": 2087,
      "泥": 2088,
      "注": 2089,
      "泪": 2090,
      "泯": 2091,
      "泰": 2092,
      "泱": 2093,
      "泵": 2094,
      "泻": 2095,
      "泼": 2096,
      "泽": 2097,
      "泾": 2098,
      "洁": 2099,
      "洋": 2100,
      "洒": 2101,
      "洗": 2102,
      "洛": 2103,
      "洞": 2104,
      "津": 2105,
      "洪": 2106,
      "洲": 2107,
      "活": 2108,
      "洼": 2109,
      "洽": 2110,
      "派": 2111,
      "流": 2112,
      "浅": 2113,
      "浆": 2114,
      "浇": 2115,
      "浈": 2116,
      "浊": 2117,
      "测": 2118,
      "济": 2119,
      "浏": 2120,
      "浑": 2121,
      "浒": 2122,
      "浓": 2123,
      "浙": 2124,
      "浜": 2125,
      "浣": 2126,
      "浦": 2127,
      "浩": 2128,
      "浪": 2129,
      "浮": 2130,
      "浴": 2131,
      "海": 2132,
      "浸": 2133,
      "涂": 2134,
      "涅": 2135,
      "消": 2136,
      "涉": 2137,
      "涌": 2138,
      "涎": 2139,
      "涛": 2140,
      "涡": 2141,
      "涤": 2142,
      "润": 2143,
      "涨": 2144,
      "涩": 2145,
      "涮": 2146,
      "涯": 2147,
      "液": 2148,
      "涵": 2149,
      "淀": 2150,
      "淄": 2151,
      "淆": 2152,
      "淇": 2153,
      "淋": 2154,
      "淌": 2155,
      "淑": 2156,
      "淘": 2157,
      "淡": 2158,
      "深": 2159,
      "淳": 2160,
      "混": 2161,
      "淹": 2162,
      "添": 2163,
      "清": 2164,
      "渊": 2165,
      "渍": 2166,
      "渎": 2167,
      "渐": 2168,
      "渗": 2169,
      "渠": 2170,
      "渡": 2171,
      "渣": 2172,
      "渤": 2173,
      "温": 2174,
      "測": 2175,
      "港": 2176,
      "渲": 2177,
      "渴": 2178,
      "游": 2179,
      "渺": 2180,
      "湃": 2181,
      "湖": 2182,
      "湘": 2183,
      "湛": 2184,
      "湾": 2185,
      "湿": 2186,
      "溃": 2187,
      "溅": 2188,
      "溉": 2189,
      "源": 2190,
      "準": 2191,
      "溜": 2192,
      "溢": 2193,
      "溥": 2194,
      "溪": 2195,
      "溫": 2196,
      "溯": 2197,
      "溶": 2198,
      "滋": 2199,
      "滑": 2200,
      "滚": 2201,
      "滞": 2202,
      "满": 2203,
      "滤": 2204,
      "滥": 2205,
      "滨": 2206,
      "滩": 2207,
      "滴": 2208,
      "滿": 2209,
      "漂": 2210,
      "漆": 2211,
      "漏": 2212,
      "漓": 2213,
      "演": 2214,
      "漠": 2215,
      "漩": 2216,
      "漫": 2217,
      "漲": 2218,
      "漸": 2219,
      "漾": 2220,
      "潘": 2221,
      "潜": 2222,
      "潢": 2223,
      "潦": 2224,
      "潭": 2225,
      "潮": 2226,
      "潸": 2227,
      "澄": 2228,
      "澈": 2229,
      "澎": 2230,
      "澜": 2231,
      "澡": 2232,
      "澳": 2233,
      "激": 2234,
      "濃": 2235,
      "瀚": 2236,
      "灌": 2237,
      "灣": 2238,
      "火": 2239,
      "灭": 2240,
      "灯": 2241,
      "灰": 2242,
      "灵": 2243,
      "灼": 2244,
      "灾": 2245,
      "灿": 2246,
      "炅": 2247,
      "炉": 2248,
      "炊": 2249,
      "炎": 2250,
      "炒": 2251,
      "炖": 2252,
      "炙": 2253,
      "炫": 2254,
      "炬": 2255,
      "炭": 2256,
      "炮": 2257,
      "炸": 2258,
      "点": 2259,
      "為": 2260,
      "炼": 2261,
      "炽": 2262,
      "烁": 2263,
      "烂": 2264,
      "烈": 2265,
      "烘": 2266,
      "烙": 2267,
      "烛": 2268,
      "烟": 2269,
      "烤": 2270,
      "烦": 2271,
      "烧": 2272,
      "烨": 2273,
      "烩": 2274,
      "烫": 2275,
      "烬": 2276,
      "热": 2277,
      "焉": 2278,
      "焊": 2279,
      "焙": 2280,
      "無": 2281,
      "焦": 2282,
      "然": 2283,
      "煌": 2284,
      "煙": 2285,
      "煞": 2286,
      "煤": 2287,
      "照": 2288,
      "煮": 2289,
      "煲": 2290,
      "煽": 2291,
      "熊": 2292,
      "熏": 2293,
      "熙": 2294,
      "熟": 2295,
      "熠": 2296,
      "熨": 2297,
      "熬": 2298,
      "熱": 2299,
      "燃": 2300,
      "燕": 2301,
      "燥": 2302,
      "爆": 2303,
      "爛": 2304,
      "爪": 2305,
      "爬": 2306,
      "爭": 2307,
      "爱": 2308,
      "爲": 2309,
      "爵": 2310,
      "父": 2311,
      "爷": 2312,
      "爸": 2313,
      "爹": 2314,
      "爽": 2315,
      "片": 2316,
      "版": 2317,
      "牌": 2318,
      "牒": 2319,
      "牙": 2320,
      "牛": 2321,
      "牟": 2322,
      "牡": 2323,
      "牢": 2324,
      "牧": 2325,
      "物": 2326,
      "牲": 2327,
      "牵": 2328,
      "特": 2329,
      "牺": 2330,
      "犀": 2331,
      "犄": 2332,
      "犬": 2333,
      "犯": 2334,
      "状": 2335,
      "犹": 2336,
      "狂": 2337,
      "狄": 2338,
      "狈": 2339,
      "狐": 2340,
      "狗": 2341,
      "狞": 2342,
      "狠": 2343,
      "狡": 2344,
      "狩": 2345,
      "独": 2346,
      "狭": 2347,
      "狮": 2348,
      "狰": 2349,
      "狱": 2350,
      "狸": 2351,
      "狼": 2352,
      "猎": 2353,
      "猖": 2354,
      "猛": 2355,
      "猜": 2356,
      "猥": 2357,
      "猪": 2358,
      "猫": 2359,
      "献": 2360,
      "猴": 2361,
      "猾": 2362,
      "獲": 2363,
      "獻": 2364,
      "玄": 2365,
      "率": 2366,
      "玉": 2367,
      "王": 2368,
      "玛": 2369,
      "玥": 2370,
      "玩": 2371,
      "玫": 2372,
      "玮": 2373,
      "环": 2374,
      "现": 2375,
      "玲": 2376,
      "玷": 2377,
      "玺": 2378,
      "玻": 2379,
      "珀": 2380,
      "珂": 2381,
      "珈": 2382,
      "珊": 2383,
      "珍": 2384,
      "珏": 2385,
      "珑": 2386,
      "珠": 2387,
      "班": 2388,
      "現": 2389,
      "球": 2390,
      "琅": 2391,
      "理": 2392,
      "琉": 2393,
      "琐": 2394,
      "琢": 2395,
      "琥": 2396,
      "琪": 2397,
      "琰": 2398,
      "琳": 2399,
      "琴": 2400,
      "琵": 2401,
      "琶": 2402,
      "琼": 2403,
      "瑕": 2404,
      "瑙": 2405,
      "瑜": 2406,
      "瑞": 2407,
      "瑟": 2408,
      "瑰": 2409,
      "瑶": 2410,
      "瑾": 2411,
      "璀": 2412,
      "璃": 2413,
      "璋": 2414,
      "璐": 2415,
      "璞": 2416,
      "璧": 2417,
      "璨": 2418,
      "瓜": 2419,
      "瓢": 2420,
      "瓣": 2421,
      "瓦": 2422,
      "瓶": 2423,
      "瓷": 2424,
      "甄": 2425,
      "甘": 2426,
      "甚": 2427,
      "甜": 2428,
      "生": 2429,
      "產": 2430,
      "甥": 2431,
      "用": 2432,
      "甩": 2433,
      "甭": 2434,
      "田": 2435,
      "由": 2436,
      "甲": 2437,
      "申": 2438,
      "电": 2439,
      "男": 2440,
      "画": 2441,
      "畅": 2442,
      "界": 2443,
      "畏": 2444,
      "畑": 2445,
      "畔": 2446,
      "留": 2447,
      "畢": 2448,
      "略": 2449,
      "番": 2450,
      "畫": 2451,
      "異": 2452,
      "當": 2453,
      "畿": 2454,
      "疆": 2455,
      "疏": 2456,
      "疑": 2457,
      "疗": 2458,
      "疙": 2459,
      "疚": 2460,
      "疡": 2461,
      "疤": 2462,
      "疫": 2463,
      "疮": 2464,
      "疯": 2465,
      "疲": 2466,
      "疵": 2467,
      "疹": 2468,
      "疼": 2469,
      "疾": 2470,
      "病": 2471,
      "症": 2472,
      "痒": 2473,
      "痕": 2474,
      "痘": 2475,
      "痛": 2476,
      "痞": 2477,
      "痣": 2478,
      "痧": 2479,
      "痪": 2480,
      "痫": 2481,
      "痴": 2482,
      "瘦": 2483,
      "瘩": 2484,
      "瘪": 2485,
      "瘫": 2486,
      "瘾": 2487,
      "癌": 2488,
      "癖": 2489,
      "登": 2490,
      "發": 2491,
      "白": 2492,
      "百": 2493,
      "皂": 2494,
      "的": 2495,
      "皆": 2496,
      "皇": 2497,
      "皈": 2498,
      "皖": 2499,
      "皙": 2500,
      "皮": 2501,
      "皱": 2502,
      "盆": 2503,
      "盈": 2504,
      "益": 2505,
      "盎": 2506,
      "盏": 2507,
      "盐": 2508,
      "监": 2509,
      "盒": 2510,
      "盖": 2511,
      "盗": 2512,
      "盘": 2513,
      "盛": 2514,
      "盜": 2515,
      "盟": 2516,
      "盡": 2517,
      "盤": 2518,
      "盧": 2519,
      "目": 2520,
      "盯": 2521,
      "盲": 2522,
      "直": 2523,
      "相": 2524,
      "盹": 2525,
      "盼": 2526,
      "盾": 2527,
      "省": 2528,
      "眉": 2529,
      "看": 2530,
      "眞": 2531,
      "真": 2532,
      "眠": 2533,
      "眨": 2534,
      "眩": 2535,
      "眶": 2536,
      "眷": 2537,
      "眼": 2538,
      "眾": 2539,
      "着": 2540,
      "睁": 2541,
      "睇": 2542,
      "睛": 2543,
      "睡": 2544,
      "督": 2545,
      "睦": 2546,
      "睹": 2547,
      "睽": 2548,
      "睿": 2549,
      "瞅": 2550,
      "瞌": 2551,
      "瞎": 2552,
      "瞑": 2553,
      "瞒": 2554,
      "瞧": 2555,
      "瞩": 2556,
      "瞪": 2557,
      "瞬": 2558,
      "瞰": 2559,
      "矛": 2560,
      "矜": 2561,
      "矢": 2562,
      "矣": 2563,
      "知": 2564,
      "矦": 2565,
      "矩": 2566,
      "矫": 2567,
      "短": 2568,
      "矮": 2569,
      "石": 2570,
      "矿": 2571,
      "码": 2572,
      "砂": 2573,
      "砌": 2574,
      "砍": 2575,
      "研": 2576,
      "砖": 2577,
      "砣": 2578,
      "砭": 2579,
      "破": 2580,
      "砷": 2581,
      "砸": 2582,
      "砺": 2583,
      "础": 2584,
      "硅": 2585,
      "硕": 2586,
      "硫": 2587,
      "硬": 2588,
      "确": 2589,
      "碌": 2590,
      "碍": 2591,
      "碎": 2592,
      "碑": 2593,
      "碗": 2594,
      "碜": 2595,
      "碟": 2596,
      "碧": 2597,
      "碰": 2598,
      "碳": 2599,
      "確": 2600,
      "磁": 2601,
      "磅": 2602,
      "磊": 2603,
      "磕": 2604,
      "磨": 2605,
      "磯": 2606,
      "礙": 2607,
      "礴": 2608,
      "示": 2609,
      "礼": 2610,
      "社": 2611,
      "祁": 2612,
      "祇": 2613,
      "祈": 2614,
      "祉": 2615,
      "祐": 2616,
      "祖": 2617,
      "祛": 2618,
      "祝": 2619,
      "神": 2620,
      "祢": 2621,
      "祥": 2622,
      "票": 2623,
      "祭": 2624,
      "祯": 2625,
      "祷": 2626,
      "祸": 2627,
      "禁": 2628,
      "禅": 2629,
      "福": 2630,
      "禧": 2631,
      "禮": 2632,
      "禹": 2633,
      "禺": 2634,
      "离": 2635,
      "禾": 2636,
      "秀": 2637,
      "私": 2638,
      "秃": 2639,
      "秉": 2640,
      "秋": 2641,
      "种": 2642,
      "科": 2643,
      "秒": 2644,
      "秘": 2645,
      "租": 2646,
      "秦": 2647,
      "秩": 2648,
      "积": 2649,
      "称": 2650,
      "移": 2651,
      "秽": 2652,
      "稀": 2653,
      "程": 2654,
      "稍": 2655,
      "税": 2656,
      "稔": 2657,
      "稚": 2658,
      "稠": 2659,
      "稣": 2660,
      "稥": 2661,
      "種": 2662,
      "稱": 2663,
      "稳": 2664,
      "稽": 2665,
      "稿": 2666,
      "穆": 2667,
      "穴": 2668,
      "究": 2669,
      "穷": 2670,
      "空": 2671,
      "穿": 2672,
      "突": 2673,
      "窃": 2674,
      "窄": 2675,
      "窈": 2676,
      "窍": 2677,
      "窒": 2678,
      "窕": 2679,
      "窗": 2680,
      "窜": 2681,
      "窝": 2682,
      "窥": 2683,
      "窦": 2684,
      "窩": 2685,
      "窮": 2686,
      "立": 2687,
      "竖": 2688,
      "站": 2689,
      "竞": 2690,
      "竟": 2691,
      "章": 2692,
      "童": 2693,
      "竭": 2694,
      "端": 2695,
      "竹": 2696,
      "竽": 2697,
      "竿": 2698,
      "笈": 2699,
      "笑": 2700,
      "笔": 2701,
      "笛": 2702,
      "符": 2703,
      "笨": 2704,
      "第": 2705,
      "笺": 2706,
      "笼": 2707,
      "等": 2708,
      "筋": 2709,
      "筑": 2710,
      "筒": 2711,
      "答": 2712,
      "策": 2713,
      "筛": 2714,
      "筝": 2715,
      "筹": 2716,
      "签": 2717,
      "简": 2718,
      "箍": 2719,
      "算": 2720,
      "箜": 2721,
      "管": 2722,
      "箫": 2723,
      "箭": 2724,
      "箱": 2725,
      "箴": 2726,
      "節": 2727,
      "篇": 2728,
      "篌": 2729,
      "篎": 2730,
      "篡": 2731,
      "篮": 2732,
      "簌": 2733,
      "簟": 2734,
      "簡": 2735,
      "簧": 2736,
      "簽": 2737,
      "簿": 2738,
      "籁": 2739,
      "籍": 2740,
      "米": 2741,
      "类": 2742,
      "籽": 2743,
      "粉": 2744,
      "粒": 2745,
      "粕": 2746,
      "粗": 2747,
      "粘": 2748,
      "粟": 2749,
      "粤": 2750,
      "粥": 2751,
      "粮": 2752,
      "粹": 2753,
      "精": 2754,
      "糅": 2755,
      "糊": 2756,
      "糕": 2757,
      "糖": 2758,
      "糙": 2759,
      "糟": 2760,
      "糯": 2761,
      "系": 2762,
      "紀": 2763,
      "約": 2764,
      "紅": 2765,
      "納": 2766,
      "純": 2767,
      "紙": 2768,
      "級": 2769,
      "素": 2770,
      "索": 2771,
      "紧": 2772,
      "紫": 2773,
      "累": 2774,
      "細": 2775,
      "紹": 2776,
      "終": 2777,
      "結": 2778,
      "絕": 2779,
      "給": 2780,
      "絮": 2781,
      "統": 2782,
      "經": 2783,
      "維": 2784,
      "網": 2785,
      "綺": 2786,
      "緒": 2787,
      "線": 2788,
      "緣": 2789,
      "編": 2790,
      "練": 2791,
      "總": 2792,
      "繁": 2793,
      "繼": 2794,
      "續": 2795,
      "纠": 2796,
      "红": 2797,
      "纤": 2798,
      "约": 2799,
      "级": 2800,
      "纨": 2801,
      "纪": 2802,
      "纫": 2803,
      "纬": 2804,
      "纯": 2805,
      "纱": 2806,
      "纲": 2807,
      "纳": 2808,
      "纵": 2809,
      "纶": 2810,
      "纷": 2811,
      "纸": 2812,
      "纹": 2813,
      "纽": 2814,
      "线": 2815,
      "练": 2816,
      "组": 2817,
      "绅": 2818,
      "细": 2819,
      "织": 2820,
      "终": 2821,
      "绊": 2822,
      "绍": 2823,
      "绎": 2824,
      "经": 2825,
      "绑": 2826,
      "绒": 2827,
      "结": 2828,
      "绔": 2829,
      "绕": 2830,
      "绘": 2831,
      "给": 2832,
      "绚": 2833,
      "络": 2834,
      "绝": 2835,
      "绞": 2836,
      "统": 2837,
      "绣": 2838,
      "继": 2839,
      "绩": 2840,
      "绪": 2841,
      "续": 2842,
      "绮": 2843,
      "绯": 2844,
      "绰": 2845,
      "绳": 2846,
      "维": 2847,
      "绵": 2848,
      "绷": 2849,
      "绸": 2850,
      "综": 2851,
      "绽": 2852,
      "绿": 2853,
      "缀": 2854,
      "缅": 2855,
      "缆": 2856,
      "缈": 2857,
      "缉": 2858,
      "缓": 2859,
      "缔": 2860,
      "缕": 2861,
      "编": 2862,
      "缘": 2863,
      "缚": 2864,
      "缝": 2865,
      "缠": 2866,
      "缥": 2867,
      "缩": 2868,
      "缪": 2869,
      "缶": 2870,
      "缸": 2871,
      "缺": 2872,
      "罐": 2873,
      "网": 2874,
      "罕": 2875,
      "罗": 2876,
      "罚": 2877,
      "罢": 2878,
      "罩": 2879,
      "罪": 2880,
      "置": 2881,
      "署": 2882,
      "罵": 2883,
      "罷": 2884,
      "罹": 2885,
      "羁": 2886,
      "羊": 2887,
      "美": 2888,
      "羞": 2889,
      "羡": 2890,
      "群": 2891,
      "義": 2892,
      "羯": 2893,
      "羽": 2894,
      "翁": 2895,
      "翅": 2896,
      "習": 2897,
      "翔": 2898,
      "翘": 2899,
      "翟": 2900,
      "翠": 2901,
      "翩": 2902,
      "翰": 2903,
      "翻": 2904,
      "翼": 2905,
      "耀": 2906,
      "老": 2907,
      "考": 2908,
      "者": 2909,
      "而": 2910,
      "耍": 2911,
      "耐": 2912,
      "耗": 2913,
      "耙": 2914,
      "耳": 2915,
      "耶": 2916,
      "耷": 2917,
      "耸": 2918,
      "耻": 2919,
      "耽": 2920,
      "聆": 2921,
      "聊": 2922,
      "聋": 2923,
      "职": 2924,
      "联": 2925,
      "聘": 2926,
      "聚": 2927,
      "聩": 2928,
      "聪": 2929,
      "聲": 2930,
      "聽": 2931,
      "肃": 2932,
      "肄": 2933,
      "肆": 2934,
      "肉": 2935,
      "肋": 2936,
      "肌": 2937,
      "肖": 2938,
      "肚": 2939,
      "肠": 2940,
      "股": 2941,
      "肢": 2942,
      "肤": 2943,
      "肥": 2944,
      "肩": 2945,
      "肮": 2946,
      "肯": 2947,
      "育": 2948,
      "肺": 2949,
      "肿": 2950,
      "胀": 2951,
      "胁": 2952,
      "胃": 2953,
      "胆": 2954,
      "背": 2955,
      "胎": 2956,
      "胖": 2957,
      "胜": 2958,
      "胞": 2959,
      "胡": 2960,
      "胧": 2961,
      "胭": 2962,
      "胶": 2963,
      "胸": 2964,
      "能": 2965,
      "脂": 2966,
      "脆": 2967,
      "脉": 2968,
      "脊": 2969,
      "脍": 2970,
      "脏": 2971,
      "脑": 2972,
      "脖": 2973,
      "脚": 2974,
      "脱": 2975,
      "脸": 2976,
      "脾": 2977,
      "腊": 2978,
      "腐": 2979,
      "腑": 2980,
      "腔": 2981,
      "腕": 2982,
      "腥": 2983,
      "腦": 2984,
      "腰": 2985,
      "腸": 2986,
      "腹": 2987,
      "腻": 2988,
      "腾": 2989,
      "腿": 2990,
      "膀": 2991,
      "膊": 2992,
      "膏": 2993,
      "膑": 2994,
      "膜": 2995,
      "膨": 2996,
      "膳": 2997,
      "臂": 2998,
      "臆": 2999,
      "臉": 3000,
      "臣": 3001,
      "臧": 3002,
      "臨": 3003,
      "自": 3004,
      "臭": 3005,
      "至": 3006,
      "致": 3007,
      "臺": 3008,
      "臼": 3009,
      "臾": 3010,
      "舀": 3011,
      "舅": 3012,
      "舆": 3013,
      "與": 3014,
      "舉": 3015,
      "舊": 3016,
      "舌": 3017,
      "舍": 3018,
      "舒": 3019,
      "舔": 3020,
      "舜": 3021,
      "舞": 3022,
      "舟": 3023,
      "航": 3024,
      "般": 3025,
      "舰": 3026,
      "舱": 3027,
      "船": 3028,
      "良": 3029,
      "艰": 3030,
      "色": 3031,
      "艳": 3032,
      "艺": 3033,
      "艾": 3034,
      "节": 3035,
      "芒": 3036,
      "芙": 3037,
      "芜": 3038,
      "芝": 3039,
      "芦": 3040,
      "芬": 3041,
      "芭": 3042,
      "芯": 3043,
      "花": 3044,
      "芳": 3045,
      "芸": 3046,
      "芹": 3047,
      "苇": 3048,
      "苍": 3049,
      "苏": 3050,
      "苔": 3051,
      "苗": 3052,
      "苚": 3053,
      "苛": 3054,
      "苟": 3055,
      "若": 3056,
      "苦": 3057,
      "英": 3058,
      "苹": 3059,
      "茂": 3060,
      "范": 3061,
      "茄": 3062,
      "茅": 3063,
      "茗": 3064,
      "茜": 3065,
      "茧": 3066,
      "茨": 3067,
      "茫": 3068,
      "茶": 3069,
      "茹": 3070,
      "荀": 3071,
      "草": 3072,
      "荐": 3073,
      "荒": 3074,
      "荟": 3075,
      "荡": 3076,
      "荣": 3077,
      "荧": 3078,
      "药": 3079,
      "荷": 3080,
      "莉": 3081,
      "莎": 3082,
      "莓": 3083,
      "莘": 3084,
      "莞": 3085,
      "莠": 3086,
      "莪": 3087,
      "莫": 3088,
      "莱": 3089,
      "莲": 3090,
      "获": 3091,
      "菁": 3092,
      "菌": 3093,
      "菜": 3094,
      "菠": 3095,
      "菩": 3096,
      "華": 3097,
      "菱": 3098,
      "菲": 3099,
      "萃": 3100,
      "萄": 3101,
      "萊": 3102,
      "萌": 3103,
      "萎": 3104,
      "萝": 3105,
      "萤": 3106,
      "营": 3107,
      "萦": 3108,
      "萧": 3109,
      "萨": 3110,
      "萱": 3111,
      "落": 3112,
      "著": 3113,
      "葛": 3114,
      "葡": 3115,
      "董": 3116,
      "葫": 3117,
      "葬": 3118,
      "葱": 3119,
      "葵": 3120,
      "蒂": 3121,
      "蒋": 3122,
      "蒙": 3123,
      "蒲": 3124,
      "蒸": 3125,
      "蒼": 3126,
      "蒽": 3127,
      "蓄": 3128,
      "蓉": 3129,
      "蓝": 3130,
      "蓦": 3131,
      "蓬": 3132,
      "蔑": 3133,
      "蔓": 3134,
      "蔚": 3135,
      "蔡": 3136,
      "蔬": 3137,
      "蔻": 3138,
      "蔼": 3139,
      "蔽": 3140,
      "蕙": 3141,
      "蕩": 3142,
      "蕴": 3143,
      "蕾": 3144,
      "薄": 3145,
      "薇": 3146,
      "薙": 3147,
      "薛": 3148,
      "薦": 3149,
      "薪": 3150,
      "薰": 3151,
      "藉": 3152,
      "藏": 3153,
      "藐": 3154,
      "藕": 3155,
      "藝": 3156,
      "藤": 3157,
      "藻": 3158,
      "蘭": 3159,
      "虎": 3160,
      "虐": 3161,
      "虑": 3162,
      "處": 3163,
      "虚": 3164,
      "虞": 3165,
      "號": 3166,
      "虫": 3167,
      "虹": 3168,
      "虽": 3169,
      "虾": 3170,
      "蚊": 3171,
      "蚩": 3172,
      "蚪": 3173,
      "蛀": 3174,
      "蛇": 3175,
      "蛋": 3176,
      "蛙": 3177,
      "蛛": 3178,
      "蛮": 3179,
      "蛰": 3180,
      "蛾": 3181,
      "蜂": 3182,
      "蜓": 3183,
      "蜕": 3184,
      "蜗": 3185,
      "蜘": 3186,
      "蜚": 3187,
      "蜜": 3188,
      "蜡": 3189,
      "蜥": 3190,
      "蜴": 3191,
      "蜻": 3192,
      "蝇": 3193,
      "蝉": 3194,
      "蝌": 3195,
      "蝎": 3196,
      "蝴": 3197,
      "蝶": 3198,
      "螂": 3199,
      "融": 3200,
      "螺": 3201,
      "蟀": 3202,
      "蟋": 3203,
      "蟑": 3204,
      "蟠": 3205,
      "蟹": 3206,
      "蠢": 3207,
      "蠻": 3208,
      "血": 3209,
      "行": 3210,
      "衍": 3211,
      "術": 3212,
      "衔": 3213,
      "街": 3214,
      "衡": 3215,
      "衢": 3216,
      "衣": 3217,
      "补": 3218,
      "表": 3219,
      "衫": 3220,
      "衬": 3221,
      "衰": 3222,
      "衷": 3223,
      "袁": 3224,
      "袋": 3225,
      "袍": 3226,
      "袖": 3227,
      "袜": 3228,
      "被": 3229,
      "袭": 3230,
      "袱": 3231,
      "裁": 3232,
      "裂": 3233,
      "装": 3234,
      "裔": 3235,
      "裕": 3236,
      "裙": 3237,
      "補": 3238,
      "裝": 3239,
      "裡": 3240,
      "裤": 3241,
      "裱": 3242,
      "裳": 3243,
      "裸": 3244,
      "裹": 3245,
      "製": 3246,
      "褒": 3247,
      "褪": 3248,
      "褶": 3249,
      "襄": 3250,
      "襲": 3251,
      "西": 3252,
      "要": 3253,
      "覆": 3254,
      "見": 3255,
      "視": 3256,
      "覺": 3257,
      "见": 3258,
      "观": 3259,
      "规": 3260,
      "觅": 3261,
      "视": 3262,
      "览": 3263,
      "觉": 3264,
      "觊": 3265,
      "觎": 3266,
      "觑": 3267,
      "角": 3268,
      "解": 3269,
      "触": 3270,
      "言": 3271,
      "訂": 3272,
      "計": 3273,
      "訓": 3274,
      "託": 3275,
      "訪": 3276,
      "設": 3277,
      "許": 3278,
      "訴": 3279,
      "註": 3280,
      "評": 3281,
      "詞": 3282,
      "試": 3283,
      "話": 3284,
      "該": 3285,
      "詳": 3286,
      "詹": 3287,
      "誉": 3288,
      "認": 3289,
      "誓": 3290,
      "語": 3291,
      "誤": 3292,
      "說": 3293,
      "説": 3294,
      "誰": 3295,
      "請": 3296,
      "諒": 3297,
      "論": 3298,
      "講": 3299,
      "謝": 3300,
      "識": 3301,
      "譚": 3302,
      "警": 3303,
      "譬": 3304,
      "譯": 3305,
      "議": 3306,
      "護": 3307,
      "變": 3308,
      "讓": 3309,
      "计": 3310,
      "订": 3311,
      "认": 3312,
      "讨": 3313,
      "让": 3314,
      "训": 3315,
      "议": 3316,
      "讯": 3317,
      "记": 3318,
      "讲": 3319,
      "讳": 3320,
      "讶": 3321,
      "许": 3322,
      "讹": 3323,
      "论": 3324,
      "讽": 3325,
      "设": 3326,
      "访": 3327,
      "诀": 3328,
      "证": 3329,
      "评": 3330,
      "识": 3331,
      "诈": 3332,
      "诉": 3333,
      "诋": 3334,
      "词": 3335,
      "诏": 3336,
      "译": 3337,
      "诒": 3338,
      "诓": 3339,
      "试": 3340,
      "诗": 3341,
      "诙": 3342,
      "诚": 3343,
      "诛": 3344,
      "话": 3345,
      "诞": 3346,
      "诟": 3347,
      "诠": 3348,
      "诡": 3349,
      "询": 3350,
      "该": 3351,
      "详": 3352,
      "诧": 3353,
      "诩": 3354,
      "诫": 3355,
      "语": 3356,
      "误": 3357,
      "诱": 3358,
      "诲": 3359,
      "说": 3360,
      "诵": 3361,
      "诶": 3362,
      "请": 3363,
      "诸": 3364,
      "诺": 3365,
      "读": 3366,
      "课": 3367,
      "谁": 3368,
      "调": 3369,
      "谅": 3370,
      "谈": 3371,
      "谊": 3372,
      "谋": 3373,
      "谍": 3374,
      "谎": 3375,
      "谐": 3376,
      "谑": 3377,
      "谓": 3378,
      "谛": 3379,
      "谜": 3380,
      "谢": 3381,
      "谣": 3382,
      "谦": 3383,
      "谧": 3384,
      "谨": 3385,
      "谩": 3386,
      "谪": 3387,
      "谬": 3388,
      "谭": 3389,
      "谱": 3390,
      "谴": 3391,
      "谷": 3392,
      "豁": 3393,
      "豆": 3394,
      "豐": 3395,
      "象": 3396,
      "豪": 3397,
      "豫": 3398,
      "豹": 3399,
      "貂": 3400,
      "貌": 3401,
      "貞": 3402,
      "財": 3403,
      "貨": 3404,
      "貫": 3405,
      "貴": 3406,
      "買": 3407,
      "費": 3408,
      "貼": 3409,
      "資": 3410,
      "賓": 3411,
      "賞": 3412,
      "賣": 3413,
      "質": 3414,
      "賺": 3415,
      "購": 3416,
      "贝": 3417,
      "贞": 3418,
      "负": 3419,
      "贡": 3420,
      "财": 3421,
      "责": 3422,
      "贤": 3423,
      "败": 3424,
      "账": 3425,
      "货": 3426,
      "质": 3427,
      "贩": 3428,
      "贪": 3429,
      "贫": 3430,
      "贬": 3431,
      "购": 3432,
      "贮": 3433,
      "贯": 3434,
      "贱": 3435,
      "贴": 3436,
      "贵": 3437,
      "贷": 3438,
      "贸": 3439,
      "费": 3440,
      "贺": 3441,
      "贻": 3442,
      "贼": 3443,
      "贾": 3444,
      "贿": 3445,
      "赂": 3446,
      "赃": 3447,
      "资": 3448,
      "赅": 3449,
      "赋": 3450,
      "赌": 3451,
      "赎": 3452,
      "赏": 3453,
      "赐": 3454,
      "赔": 3455,
      "赖": 3456,
      "赘": 3457,
      "赙": 3458,
      "赚": 3459,
      "赛": 3460,
      "赞": 3461,
      "赠": 3462,
      "赢": 3463,
      "赤": 3464,
      "赦": 3465,
      "赫": 3466,
      "走": 3467,
      "赴": 3468,
      "赵": 3469,
      "赶": 3470,
      "起": 3471,
      "趁": 3472,
      "超": 3473,
      "越": 3474,
      "趋": 3475,
      "趟": 3476,
      "趣": 3477,
      "足": 3478,
      "趴": 3479,
      "趸": 3480,
      "跃": 3481,
      "跄": 3482,
      "跋": 3483,
      "跌": 3484,
      "跎": 3485,
      "跑": 3486,
      "距": 3487,
      "跟": 3488,
      "跨": 3489,
      "路": 3490,
      "跳": 3491,
      "践": 3492,
      "跷": 3493,
      "踉": 3494,
      "踊": 3495,
      "踌": 3496,
      "踏": 3497,
      "踢": 3498,
      "踩": 3499,
      "踪": 3500,
      "蹂": 3501,
      "蹄": 3502,
      "蹈": 3503,
      "蹉": 3504,
      "蹋": 3505,
      "蹦": 3506,
      "蹩": 3507,
      "蹬": 3508,
      "蹭": 3509,
      "蹲": 3510,
      "蹴": 3511,
      "蹿": 3512,
      "躁": 3513,
      "躇": 3514,
      "躏": 3515,
      "身": 3516,
      "躯": 3517,
      "躲": 3518,
      "躺": 3519,
      "車": 3520,
      "較": 3521,
      "載": 3522,
      "輩": 3523,
      "輪": 3524,
      "輯": 3525,
      "车": 3526,
      "轨": 3527,
      "轩": 3528,
      "转": 3529,
      "轮": 3530,
      "软": 3531,
      "轰": 3532,
      "轴": 3533,
      "轶": 3534,
      "轻": 3535,
      "载": 3536,
      "轿": 3537,
      "较": 3538,
      "辄": 3539,
      "辅": 3540,
      "辆": 3541,
      "辈": 3542,
      "辉": 3543,
      "辍": 3544,
      "辐": 3545,
      "辑": 3546,
      "输": 3547,
      "辕": 3548,
      "辗": 3549,
      "辙": 3550,
      "辛": 3551,
      "辜": 3552,
      "辞": 3553,
      "辟": 3554,
      "辣": 3555,
      "辦": 3556,
      "辨": 3557,
      "辩": 3558,
      "辰": 3559,
      "辱": 3560,
      "边": 3561,
      "辽": 3562,
      "达": 3563,
      "迁": 3564,
      "迂": 3565,
      "迄": 3566,
      "迅": 3567,
      "过": 3568,
      "迈": 3569,
      "迎": 3570,
      "运": 3571,
      "近": 3572,
      "返": 3573,
      "还": 3574,
      "这": 3575,
      "进": 3576,
      "远": 3577,
      "违": 3578,
      "连": 3579,
      "迟": 3580,
      "迥": 3581,
      "迦": 3582,
      "迪": 3583,
      "迫": 3584,
      "迭": 3585,
      "述": 3586,
      "迴": 3587,
      "迷": 3588,
      "迸": 3589,
      "迹": 3590,
      "追": 3591,
      "退": 3592,
      "送": 3593,
      "适": 3594,
      "逃": 3595,
      "逅": 3596,
      "逆": 3597,
      "选": 3598,
      "逊": 3599,
      "逍": 3600,
      "透": 3601,
      "逐": 3602,
      "递": 3603,
      "途": 3604,
      "逗": 3605,
      "這": 3606,
      "通": 3607,
      "逛": 3608,
      "逝": 3609,
      "速": 3610,
      "造": 3611,
      "逢": 3612,
      "連": 3613,
      "週": 3614,
      "進": 3615,
      "逸": 3616,
      "逻": 3617,
      "逼": 3618,
      "逾": 3619,
      "遂": 3620,
      "遇": 3621,
      "遊": 3622,
      "運": 3623,
      "遍": 3624,
      "過": 3625,
      "遐": 3626,
      "道": 3627,
      "達": 3628,
      "違": 3629,
      "遗": 3630,
      "遛": 3631,
      "遠": 3632,
      "遣": 3633,
      "遥": 3634,
      "適": 3635,
      "遭": 3636,
      "遮": 3637,
      "遵": 3638,
      "選": 3639,
      "避": 3640,
      "邀": 3641,
      "邂": 3642,
      "邃": 3643,
      "還": 3644,
      "邊": 3645,
      "邓": 3646,
      "那": 3647,
      "邦": 3648,
      "邪": 3649,
      "邮": 3650,
      "邱": 3651,
      "邵": 3652,
      "邹": 3653,
      "邻": 3654,
      "郁": 3655,
      "郊": 3656,
      "郎": 3657,
      "郑": 3658,
      "郝": 3659,
      "郞": 3660,
      "郡": 3661,
      "部": 3662,
      "郭": 3663,
      "郵": 3664,
      "都": 3665,
      "鄂": 3666,
      "鄒": 3667,
      "鄙": 3668,
      "酌": 3669,
      "配": 3670,
      "酒": 3671,
      "酣": 3672,
      "酥": 3673,
      "酬": 3674,
      "酱": 3675,
      "酵": 3676,
      "酷": 3677,
      "酸": 3678,
      "醇": 3679,
      "醉": 3680,
      "醋": 3681,
      "醍": 3682,
      "醐": 3683,
      "醒": 3684,
      "醕": 3685,
      "醛": 3686,
      "醦": 3687,
      "醩": 3688,
      "醫": 3689,
      "采": 3690,
      "释": 3691,
      "釋": 3692,
      "里": 3693,
      "重": 3694,
      "野": 3695,
      "量": 3696,
      "金": 3697,
      "釘": 3698,
      "釜": 3699,
      "針": 3700,
      "鉴": 3701,
      "銅": 3702,
      "鋞": 3703,
      "錄": 3704,
      "錢": 3705,
      "錦": 3706,
      "錯": 3707,
      "錿": 3708,
      "鏰": 3709,
      "鏾": 3710,
      "鑫": 3711,
      "针": 3712,
      "钉": 3713,
      "钓": 3714,
      "钚": 3715,
      "钝": 3716,
      "钞": 3717,
      "钟": 3718,
      "钠": 3719,
      "钢": 3720,
      "钥": 3721,
      "钦": 3722,
      "钧": 3723,
      "钨": 3724,
      "钩": 3725,
      "钮": 3726,
      "钱": 3727,
      "钻": 3728,
      "铁": 3729,
      "铃": 3730,
      "铅": 3731,
      "铆": 3732,
      "铉": 3733,
      "铎": 3734,
      "铛": 3735,
      "铜": 3736,
      "铭": 3737,
      "银": 3738,
      "铺": 3739,
      "链": 3740,
      "铿": 3741,
      "销": 3742,
      "锁": 3743,
      "锂": 3744,
      "锅": 3745,
      "锈": 3746,
      "锋": 3747,
      "锐": 3748,
      "锒": 3749,
      "错": 3750,
      "锡": 3751,
      "锢": 3752,
      "锣": 3753,
      "锤": 3754,
      "锥": 3755,
      "锦": 3756,
      "键": 3757,
      "锯": 3758,
      "锰": 3759,
      "锵": 3760,
      "锻": 3761,
      "镀": 3762,
      "镇": 3763,
      "镑": 3764,
      "镖": 3765,
      "镙": 3766,
      "镜": 3767,
      "镣": 3768,
      "镭": 3769,
      "镶": 3770,
      "長": 3771,
      "长": 3772,
      "開": 3773,
      "閍": 3774,
      "閐": 3775,
      "閑": 3776,
      "閒": 3777,
      "間": 3778,
      "閘": 3779,
      "閙": 3780,
      "閚": 3781,
      "閜": 3782,
      "閞": 3783,
      "閟": 3784,
      "関": 3785,
      "關": 3786,
      "门": 3787,
      "闪": 3788,
      "闫": 3789,
      "闭": 3790,
      "问": 3791,
      "闯": 3792,
      "闲": 3793,
      "间": 3794,
      "闷": 3795,
      "闹": 3796,
      "闺": 3797,
      "闻": 3798,
      "阀": 3799,
      "阁": 3800,
      "阂": 3801,
      "阅": 3802,
      "阉": 3803,
      "阎": 3804,
      "阐": 3805,
      "阑": 3806,
      "阔": 3807,
      "队": 3808,
      "阮": 3809,
      "阱": 3810,
      "防": 3811,
      "阳": 3812,
      "阴": 3813,
      "阵": 3814,
      "阶": 3815,
      "阻": 3816,
      "阿": 3817,
      "陀": 3818,
      "附": 3819,
      "际": 3820,
      "陆": 3821,
      "陈": 3822,
      "陋": 3823,
      "陌": 3824,
      "降": 3825,
      "限": 3826,
      "陕": 3827,
      "院": 3828,
      "除": 3829,
      "陨": 3830,
      "险": 3831,
      "陪": 3832,
      "陳": 3833,
      "陵": 3834,
      "陶": 3835,
      "陷": 3836,
      "陸": 3837,
      "隆": 3838,
      "隋": 3839,
      "随": 3840,
      "隐": 3841,
      "隔": 3842,
      "隘": 3843,
      "隙": 3844,
      "際": 3845,
      "障": 3846,
      "隧": 3847,
      "隨": 3848,
      "隶": 3849,
      "隻": 3850,
      "隽": 3851,
      "难": 3852,
      "雀": 3853,
      "雁": 3854,
      "雄": 3855,
      "雅": 3856,
      "集": 3857,
      "雇": 3858,
      "雍": 3859,
      "雕": 3860,
      "雖": 3861,
      "雙": 3862,
      "雜": 3863,
      "離": 3864,
      "難": 3865,
      "雨": 3866,
      "雪": 3867,
      "雯": 3868,
      "雳": 3869,
      "零": 3870,
      "雷": 3871,
      "電": 3872,
      "雾": 3873,
      "需": 3874,
      "霁": 3875,
      "霄": 3876,
      "霆": 3877,
      "震": 3878,
      "霉": 3879,
      "霍": 3880,
      "霏": 3881,
      "霖": 3882,
      "霜": 3883,
      "霞": 3884,
      "露": 3885,
      "霸": 3886,
      "霹": 3887,
      "青": 3888,
      "靓": 3889,
      "靖": 3890,
      "静": 3891,
      "非": 3892,
      "靠": 3893,
      "靡": 3894,
      "面": 3895,
      "革": 3896,
      "靳": 3897,
      "鞋": 3898,
      "鞍": 3899,
      "鞭": 3900,
      "韆": 3901,
      "韈": 3902,
      "韉": 3903,
      "韓": 3904,
      "韦": 3905,
      "韧": 3906,
      "韩": 3907,
      "音": 3908,
      "韵": 3909,
      "頂": 3910,
      "順": 3911,
      "預": 3912,
      "頻": 3913,
      "題": 3914,
      "額": 3915,
      "類": 3916,
      "顧": 3917,
      "顯": 3918,
      "页": 3919,
      "顶": 3920,
      "项": 3921,
      "顺": 3922,
      "须": 3923,
      "顽": 3924,
      "顾": 3925,
      "顿": 3926,
      "颀": 3927,
      "颁": 3928,
      "颂": 3929,
      "预": 3930,
      "颅": 3931,
      "领": 3932,
      "颇": 3933,
      "颊": 3934,
      "频": 3935,
      "颓": 3936,
      "颖": 3937,
      "颗": 3938,
      "题": 3939,
      "颙": 3940,
      "颜": 3941,
      "额": 3942,
      "颠": 3943,
      "颤": 3944,
      "颦": 3945,
      "風": 3946,
      "飄": 3947,
      "飆": 3948,
      "风": 3949,
      "飗": 3950,
      "飘": 3951,
      "飙": 3952,
      "飚": 3953,
      "飛": 3954,
      "飞": 3955,
      "食": 3956,
      "飽": 3957,
      "飾": 3958,
      "養": 3959,
      "餐": 3960,
      "館": 3961,
      "饭": 3962,
      "饮": 3963,
      "饰": 3964,
      "饱": 3965,
      "饶": 3966,
      "饼": 3967,
      "饿": 3968,
      "馅": 3969,
      "馆": 3970,
      "馈": 3971,
      "馊": 3972,
      "首": 3973,
      "香": 3974,
      "馨": 3975,
      "馬": 3976,
      "馮": 3977,
      "駉": 3978,
      "騰": 3979,
      "驅": 3980,
      "驗": 3981,
      "驚": 3982,
      "马": 3983,
      "驭": 3984,
      "驰": 3985,
      "驱": 3986,
      "驳": 3987,
      "驴": 3988,
      "驻": 3989,
      "驼": 3990,
      "驾": 3991,
      "驿": 3992,
      "骂": 3993,
      "骄": 3994,
      "骆": 3995,
      "骇": 3996,
      "骊": 3997,
      "骋": 3998,
      "验": 3999,
      "骏": 4000,
      "骑": 4001,
      "骗": 4002,
      "骚": 4003,
      "骤": 4004,
      "骨": 4005,
      "骰": 4006,
      "骸": 4007,
      "髆": 4008,
      "髇": 4009,
      "髒": 4010,
      "髓": 4011,
      "體": 4012,
      "高": 4013,
      "髦": 4014,
      "鬱": 4015,
      "鬼": 4016,
      "魁": 4017,
      "魂": 4018,
      "魄": 4019,
      "魅": 4020,
      "魏": 4021,
      "魔": 4022,
      "魚": 4023,
      "鰀": 4024,
      "鱼": 4025,
      "鲁": 4026,
      "鲍": 4027,
      "鲜": 4028,
      "鲤": 4029,
      "鲨": 4030,
      "鳅": 4031,
      "鳟": 4032,
      "鷓": 4033,
      "鸟": 4034,
      "鸡": 4035,
      "鸣": 4036,
      "鸥": 4037,
      "鸦": 4038,
      "鸭": 4039,
      "鸽": 4040,
      "鸿": 4041,
      "鹂": 4042,
      "鹅": 4043,
      "鹏": 4044,
      "鹜": 4045,
      "鹤": 4046,
      "鹰": 4047,
      "鹿": 4048,
      "麗": 4049,
      "麟": 4050,
      "麦": 4051,
      "麻": 4052,
      "麼": 4053,
      "麽": 4054,
      "黄": 4055,
      "黎": 4056,
      "黏": 4057,
      "黑": 4058,
      "黔": 4059,
      "默": 4060,
      "黛": 4061,
      "點": 4062,
      "黯": 4063,
      "鼎": 4064,
      "鼓": 4065,
      "鼠": 4066,
      "鼹": 4067,
      "鼻": 4068,
      "齐": 4069,
      "齿": 4070,
      "龄": 4071,
      "龙": 4072,
      "龟": 4073,
      "": 4074,
      "︶": 4075,
      "︿": 4076,
      "﹏": 4077,
      "﹐": 4078,
      "﹑": 4079,
      "﹔": 4080,
      "﹕": 4081,
      "﹡": 4082,
      "！": 4083,
      "＂": 4084,
      "＃": 4085,
      "％": 4086,
      "（": 4087,
      "）": 4088,
      "＋": 4089,
      "，": 4090,
      "－": 4091,
      "．": 4092,
      "／": 4093,
      "０": 4094,
      "１": 4095,
      "２": 4096,
      "３": 4097,
      "４": 4098,
      "５": 4099,
      "６": 4100,
      "７": 4101,
      "８": 4102,
      "９": 4103,
      "：": 4104,
      "；": 4105,
      "＜": 4106,
      "＞": 4107,
      "？": 4108,
      "Ｂ": 4109,
      "Ｃ": 4110,
      "Ｄ": 4111,
      "Ｆ": 4112,
      "Ｇ": 4113,
      "Ｊ": 4114,
      "Ｋ": 4115,
      "Ｌ": 4116,
      "Ｍ": 4117,
      "Ｎ": 4118,
      "Ｏ": 4119,
      "Ｐ": 4120,
      "Ｑ": 4121,
      "Ｔ": 4122,
      "Ｖ": 4123,
      "Ｘ": 4124,
      "Ｙ": 4125,
      "Ｚ": 4126,
      "＼": 4127,
      "＾": 4128,
      "｀": 4129,
      "ｄ": 4130,
      "ｅ": 4131,
      "ｖ": 4132,
      "～": 4133,
      "￣": 4134,
      "￥": 4135,
      "th": 4136,
      "in": 4137,
      "er": 4138,
      "an": 4139,
      "the": 4140,
      "re": 4141,
      "on": 4142,
      "is": 4143,
      "ou": 4144,
      "to": 4145,
      "at": 4146,
      "it": 4147,
      "or": 4148,
      "en": 4149,
      "ing": 4150,
      "ed": 4151,
      "as": 4152,
      "and": 4153,
      "es": 4154,
      "al": 4155,
      "ar": 4156,
      "of": 4157,
      "st": 4158,
      "le": 4159,
      "ve": 4160,
      "se": 4161,
      "ly": 4162,
      "om": 4163,
      "ic": 4164,
      "ha": 4165,
      "he": 4166,
      "ac": 4167,
      "be": 4168,
      "no": 4169,
      "wi": 4170,
      "for": 4171,
      "ll": 4172,
      "ver": 4173,
      "ter": 4174,
      "ro": 4175,
      "that": 4176,
      "ut": 4177,
      "ch": 4178,
      "wh": 4179,
      "this": 4180,
      "you": 4181,
      "gh": 4182,
      "ad": 4183,
      "ti": 4184,
      "me": 4185,
      "lo": 4186,
      "ay": 4187,
      "ld": 4188,
      "with": 4189,
      "id": 4190,
      "was": 4191,
      "li": 4192,
      "mo": 4193,
      "ke": 4194,
      "ne": 4195,
      "ab": 4196,
      "have": 4197,
      "ge": 4198,
      "ri": 4199,
      "do": 4200,
      "my": 4201,
      "us": 4202,
      "all": 4203,
      "pro": 4204,
      "oo": 4205,
      "The": 4206,
      "not": 4207,
      "are": 4208,
      "one": 4209,
      "out": 4210,
      "ent": 4211,
      "up": 4212,
      "com": 4213,
      "so": 4214,
      "am": 4215,
      "ur": 4216,
      "un": 4217,
      "ther": 4218,
      "we": 4219,
      "but": 4220,
      "fe": 4221,
      "ir": 4222,
      "ct": 4223,
      "ght": 4224,
      "ould": 4225,
      "ion": 4226,
      "wor": 4227,
      "ce": 4228,
      "de": 4229,
      "Th": 4230,
      "con": 4231,
      "ma": 4232,
      "vi": 4233,
      "ow": 4234,
      "pe": 4235,
      "pl": 4236,
      "use": 4237,
      "ess": 4238,
      "very": 4239,
      "il": 4240,
      "ally": 4241,
      "ap": 4242,
      "ust": 4243,
      "ex": 4244,
      "if": 4245,
      "ome": 4246,
      "ks": 4247,
      "It": 4248,
      "fr": 4249,
      "ice": 4250,
      "tr": 4251,
      "end": 4252,
      "po": 4253,
      "te": 4254,
      "sh": 4255,
      "ul": 4256,
      "any": 4257,
      "thing": 4258,
      "ard": 4259,
      "go": 4260,
      "tion": 4261,
      "get": 4262,
      "can": 4263,
      "ere": 4264,
      "ant": 4265,
      "from": 4266,
      "im": 4267,
      "vie": 4268,
      "per": 4269,
      "du": 4270,
      "oun": 4271,
      "su": 4272,
      "qu": 4273,
      "just": 4274,
      "ta": 4275,
      "bo": 4276,
      "would": 4277,
      "ate": 4278,
      "ack": 4279,
      "had": 4280,
      "This": 4281,
      "00": 4282,
      "res": 4283,
      "ple": 4284,
      "they": 4285,
      "work": 4286,
      "ble": 4287,
      "ast": 4288,
      "some": 4289,
      "other": 4290,
      "ine": 4291,
      "ven": 4292,
      "like": 4293,
      "ig": 4294,
      "produ": 4295,
      "able": 4296,
      "reat": 4297,
      "est": 4298,
      "co": 4299,
      "has": 4300,
      "ca": 4301,
      "about": 4302,
      "em": 4303,
      "ag": 4304,
      "ough": 4305,
      "art": 4306,
      "ood": 4307,
      "more": 4308,
      "will": 4309,
      "der": 4310,
      "product": 4311,
      "way": 4312,
      "没有": 4313,
      "ort": 4314,
      "boo": 4315,
      "king": 4316,
      "ation": 4317,
      "when": 4318,
      "read": 4319,
      "our": 4320,
      "now": 4321,
      "time": 4322,
      "pr": 4323,
      "ain": 4324,
      "sa": 4325,
      "tw": 4326,
      "ide": 4327,
      "your": 4328,
      "fter": 4329,
      "um": 4330,
      "tor": 4331,
      "act": 4332,
      "ity": 4333,
      "ound": 4334,
      "et": 4335,
      "ill": 4336,
      "did": 4337,
      "ive": 4338,
      "ers": 4339,
      "only": 4340,
      "pp": 4341,
      "than": 4342,
      "bu": 4343,
      "great": 4344,
      "does": 4345,
      "comp": 4346,
      "ind": 4347,
      "less": 4348,
      "view": 4349,
      "ear": 4350,
      "her": 4351,
      "gr": 4352,
      "dis": 4353,
      "不错": 4354,
      "ong": 4355,
      "卓越": 4356,
      "ought": 4357,
      "ho": 4358,
      "ting": 4359,
      "good": 4360,
      "too": 4361,
      "ite": 4362,
      "by": 4363,
      "喜欢": 4364,
      "ach": 4365,
      "what": 4366,
      "ick": 4367,
      "ich": 4368,
      "back": 4369,
      "el": 4370,
      "fo": 4371,
      "urn": 4372,
      "cause": 4373,
      "sc": 4374,
      "ure": 4375,
      "she": 4376,
      "ep": 4377,
      "fir": 4378,
      "mu": 4379,
      "them": 4380,
      "loo": 4381,
      "ous": 4382,
      "di": 4383,
      "dri": 4384,
      "even": 4385,
      "over": 4386,
      "who": 4387,
      "port": 4388,
      "which": 4389,
      "eas": 4390,
      "every": 4391,
      "ts": 4392,
      "dow": 4393,
      "review": 4394,
      "book": 4395,
      "there": 4396,
      "day": 4397,
      "blem": 4398,
      "much": 4399,
      "ction": 4400,
      "ser": 4401,
      "because": 4402,
      "problem": 4403,
      "could": 4404,
      "ies": 4405,
      "after": 4406,
      "year": 4407,
      "什么": 4408,
      "ret": 4409,
      "don": 4410,
      "off": 4411,
      "really": 4412,
      "well": 4413,
      "been": 4414,
      "int": 4415,
      "inst": 4416,
      "ight": 4417,
      "一个": 4418,
      "new": 4419,
      "want": 4420,
      "这个": 4421,
      "lit": 4422,
      "ink": 4423,
      "ment": 4424,
      "bet": 4425,
      "first": 4426,
      "fil": 4427,
      "ck": 4428,
      "就是": 4429,
      "还是": 4430,
      "set": 4431,
      "sup": 4432,
      "Wh": 4433,
      "man": 4434,
      "tle": 4435,
      "age": 4436,
      "DV": 4437,
      "200": 4438,
      "可以": 4439,
      "ade": 4440,
      "ist": 4441,
      "buy": 4442,
      "iz": 4443,
      "ase": 4444,
      "ved": 4445,
      "Be": 4446,
      "top": 4447,
      "cl": 4448,
      "used": 4449,
      "ra": 4450,
      "most": 4451,
      "min": 4452,
      "were": 4453,
      "mon": 4454,
      "des": 4455,
      "ile": 4456,
      "不是": 4457,
      "sp": 4458,
      "DVD": 4459,
      "ving": 4460,
      "need": 4461,
      "sof": 4462,
      "its": 4463,
      "pur": 4464,
      "tri": 4465,
      "ves": 4466,
      "ful": 4467,
      "then": 4468,
      "low": 4469,
      "ans": 4470,
      "movie": 4471,
      "ace": 4472,
      "how": 4473,
      "In": 4474,
      "br": 4475,
      "op": 4476,
      "their": 4477,
      "drive": 4478,
      "ree": 4479,
      "also": 4480,
      "非常": 4481,
      "into": 4482,
      "char": 4483,
      "love": 4484,
      "ty": 4485,
      "wat": 4486,
      "bought": 4487,
      "light": 4488,
      "his": 4489,
      "bl": 4490,
      "make": 4491,
      "fer": 4492,
      "ob": 4493,
      "down": 4494,
      "comm": 4495,
      "If": 4496,
      "kes": 4497,
      "still": 4498,
      "pre": 4499,
      "sel": 4500,
      "got": 4501,
      "two": 4502,
      "vers": 4503,
      "ci": 4504,
      "An": 4505,
      "purch": 4506,
      "fa": 4507,
      "感觉": 4508,
      "little": 4509,
      "cor": 4510,
      "质量": 4511,
      "cle": 4512,
      "hi": 4513,
      "say": 4514,
      "play": 4515,
      "using": 4516,
      "tim": 4517,
      "ased": 4518,
      "outer": 4519,
      "ff": 4520,
      "know": 4521,
      "本书": 4522,
      "My": 4523,
      "form": 4524,
      "old": 4525,
      "inter": 4526,
      "better": 4527,
      "fore": 4528,
      "see": 4529,
      "fin": 4530,
      "We": 4531,
      "router": 4532,
      "ated": 4533,
      "wr": 4534,
      "10": 4535,
      "uter": 4536,
      "ire": 4537,
      "lla": 4538,
      "ward": 4539,
      "works": 4540,
      "self": 4541,
      "easy": 4542,
      "seem": 4543,
      "ish": 4544,
      "happ": 4545,
      "try": 4546,
      "computer": 4547,
      "ens": 4548,
      "again": 4549,
      "these": 4550,
      "au": 4551,
      "think": 4552,
      "long": 4553,
      "spe": 4554,
      "fee": 4555,
      "tom": 4556,
      "ie": 4557,
      "commend": 4558,
      "No": 4559,
      "conne": 4560,
      "ru": 4561,
      "ason": 4562,
      "cess": 4563,
      "ideo": 4564,
      "ys": 4565,
      "Bella": 4566,
      "But": 4567,
      "recommend": 4568,
      "但是": 4569,
      "never": 4570,
      "现在": 4571,
      "hard": 4572,
      "didn": 4573,
      "add": 4574,
      "month": 4575,
      "cre": 4576,
      "vice": 4577,
      "dif": 4578,
      "cam": 4579,
      "point": 4580,
      "offee": 4581,
      "ality": 4582,
      "自己": 4583,
      "lot": 4584,
      "fl": 4585,
      "ually": 4586,
      "内容": 4587,
      "ix": 4588,
      "tware": 4589,
      "时候": 4590,
      "ence": 4591,
      "aw": 4592,
      "che": 4593,
      "made": 4594,
      "sm": 4595,
      "software": 4596,
      "CD": 4597,
      "zon": 4598,
      "coffee": 4599,
      "ue": 4600,
      "pos": 4601,
      "cont": 4602,
      "rough": 4603,
      "start": 4604,
      "而且": 4605,
      "ince": 4606,
      "same": 4607,
      "return": 4608,
      "东西": 4609,
      "chan": 4610,
      "right": 4611,
      "怎么": 4612,
      "video": 4613,
      "doesn": 4614,
      "wee": 4615,
      "ily": 4616,
      "pt": 4617,
      "ps": 4618,
      "ition": 4619,
      "tory": 4620,
      "many": 4621,
      "where": 4622,
      "put": 4623,
      "atter": 4624,
      "find": 4625,
      "pres": 4626,
      "should": 4627,
      "fun": 4628,
      "though": 4629,
      "ign": 4630,
      "times": 4631,
      "gg": 4632,
      "Ed": 4633,
      "ked": 4634,
      "US": 4635,
      "ever": 4636,
      "问题": 4637,
      "years": 4638,
      "price": 4639,
      "ry": 4640,
      "很多": 4641,
      "own": 4642,
      "So": 4643,
      "ople": 4644,
      "through": 4645,
      "high": 4646,
      "fect": 4647,
      "知道": 4648,
      "And": 4649,
      "film": 4650,
      "before": 4651,
      "version": 4652,
      "another": 4653,
      "part": 4654,
      "sim": 4655,
      "net": 4656,
      "install": 4657,
      "best": 4658,
      "few": 4659,
      "people": 4660,
      "going": 4661,
      "tain": 4662,
      "mach": 4663,
      "我们": 4664,
      "won": 4665,
      "feel": 4666,
      "ower": 4667,
      "ave": 4668,
      "Ama": 4669,
      "价格": 4670,
      "手机": 4671,
      "small": 4672,
      "ning": 4673,
      "ph": 4674,
      "acter": 4675,
      "support": 4676,
      "Amazon": 4677,
      "觉得": 4678,
      "jo": 4679,
      "pect": 4680,
      "character": 4681,
      "音乐": 4682,
      "run": 4683,
      "gu": 4684,
      "ass": 4685,
      "last": 4686,
      "这样": 4687,
      "sure": 4688,
      "found": 4689,
      "cond": 4690,
      "vo": 4691,
      "oney": 4692,
      "son": 4693,
      "ten": 4694,
      "under": 4695,
      "You": 4696,
      "hel": 4697,
      "take": 4698,
      "sol": 4699,
      "wire": 4700,
      "ber": 4701,
      "tried": 4702,
      "come": 4703,
      "不过": 4704,
      "ating": 4705,
      "may": 4706,
      "since": 4707,
      "clean": 4708,
      "real": 4709,
      "ars": 4710,
      "while": 4711,
      "quality": 4712,
      "keep": 4713,
      "hour": 4714,
      "ash": 4715,
      "sto": 4716,
      "TH": 4717,
      "line": 4718,
      "ize": 4719,
      "ary": 4720,
      "od": 4721,
      "machine": 4722,
      "hand": 4723,
      "ise": 4724,
      "ical": 4725,
      "ker": 4726,
      "minut": 4727,
      "包装": 4728,
      "money": 4729,
      "wa": 4730,
      "being": 4731,
      "ush": 4732,
      "feat": 4733,
      "call": 4734,
      "ull": 4735,
      "wever": 4736,
      "repl": 4737,
      "series": 4738,
      "如果": 4739,
      "They": 4740,
      "stand": 4741,
      "After": 4742,
      "比较": 4743,
      "power": 4744,
      "已经": 4745,
      "bab": 4746,
      "differ": 4747,
      "ose": 4748,
      "story": 4749,
      "show": 4750,
      "something": 4751,
      "dec": 4752,
      "不能": 4753,
      "thought": 4754,
      "reviews": 4755,
      "turn": 4756,
      "without": 4757,
      "20": 4758,
      "真的": 4759,
      "mode": 4760,
      "ton": 4761,
      "sha": 4762,
      "side": 4763,
      "box": 4764,
      "sy": 4765,
      "大家": 4766,
      "scre": 4767,
      "bad": 4768,
      "ey": 4769,
      "enough": 4770,
      "ER": 4771,
      "ped": 4772,
      "far": 4773,
      "There": 4774,
      "hair": 4775,
      "order": 4776,
      "希望": 4777,
      "里面": 4778,
      "camer": 4779,
      "around": 4780,
      "row": 4781,
      "shi": 4782,
      "cat": 4783,
      "makes": 4784,
      "load": 4785,
      "itch": 4786,
      "problems": 4787,
      "Al": 4788,
      "cus": 4789,
      "big": 4790,
      "Edward": 4791,
      "dog": 4792,
      "因为": 4793,
      "ways": 4794,
      "Ho": 4795,
      "Mac": 4796,
      "bit": 4797,
      "car": 4798,
      "water": 4799,
      "一样": 4800,
      "gi": 4801,
      "av": 4802,
      "中国": 4803,
      "second": 4804,
      "watch": 4805,
      "him": 4806,
      "unit": 4807,
      "lie": 4808,
      "ult": 4809,
      "months": 4810,
      "issu": 4811,
      "lip": 4812,
      "fact": 4813,
      "cur": 4814,
      "purchased": 4815,
      "ot": 4816,
      "ren": 4817,
      "经典": 4818,
      "还有": 4819,
      "camera": 4820,
      "fri": 4821,
      "red": 4822,
      "gram": 4823,
      "值得": 4824,
      "时间": 4825,
      "不好": 4826,
      "bre": 4827,
      "key": 4828,
      "ak": 4829,
      "ures": 4830,
      "ance": 4831,
      "ual": 4832,
      "joy": 4833,
      "give": 4834,
      "disap": 4835,
      "USB": 4836,
      "cer": 4837,
      "perfect": 4838,
      "cr": 4839,
      "comple": 4840,
      "worth": 4841,
      "lap": 4842,
      "minutes": 4843,
      "ately": 4844,
      "NO": 4845,
      "expect": 4846,
      "clo": 4847,
      "fine": 4848,
      "batter": 4849,
      "tal": 4850,
      "ud": 4851,
      "pped": 4852,
      "worked": 4853,
      "收到": 4854,
      "游戏": 4855,
      "lt": 4856,
      "ket": 4857,
      "sing": 4858,
      "look": 4859,
      "books": 4860,
      "有点": 4861,
      "coun": 4862,
      "those": 4863,
      "let": 4864,
      "nice": 4865,
      "war": 4866,
      "life": 4867,
      "days": 4868,
      "发现": 4869,
      "both": 4870,
      "ead": 4871,
      "mar": 4872,
      "inks": 4873,
      "When": 4874,
      "friend": 4875,
      "As": 4876,
      "tech": 4877,
      "everything": 4878,
      "said": 4879,
      "ON": 4880,
      "ouse": 4881,
      "exce": 4882,
      "help": 4883,
      "For": 4884,
      "ame": 4885,
      "things": 4886,
      "一下": 4887,
      "所以": 4888,
      "program": 4889,
      "wireless": 4890,
      "connect": 4891,
      "comes": 4892,
      "第一": 4893,
      "working": 4894,
      "ger": 4895,
      "actually": 4896,
      "med": 4897,
      "30": 4898,
      "ctions": 4899,
      "这么": 4900,
      "laptop": 4901,
      "cup": 4902,
      "IN": 4903,
      "lu": 4904,
      "came": 4905,
      "看到": 4906,
      "indow": 4907,
      "朋友": 4908,
      "sur": 4909,
      "always": 4910,
      "ater": 4911,
      "lar": 4912,
      "reason": 4913,
      "til": 4914,
      "peri": 4915,
      "different": 4916,
      "screen": 4917,
      "ft": 4918,
      "getting": 4919,
      "seems": 4920,
      "孩子": 4921,
      "board": 4922,
      "ible": 4923,
      "plu": 4924,
      "ext": 4925,
      "reg": 4926,
      "vel": 4927,
      "专辑": 4928,
      "str": 4929,
      "ama": 4930,
      "hours": 4931,
      "ax": 4932,
      "He": 4933,
      "ef": 4934,
      "ild": 4935,
      "tell": 4936,
      "such": 4937,
      "ready": 4938,
      "rece": 4939,
      "tive": 4940,
      "home": 4941,
      "mer": 4942,
      "灌水": 4943,
      "having": 4944,
      "fort": 4945,
      "writ": 4946,
      "mis": 4947,
      "away": 4948,
      "three": 4949,
      "cut": 4950,
      "ious": 4951,
      "coo": 4952,
      "plain": 4953,
      "reading": 4954,
      "looking": 4955,
      "AN": 4956,
      "Ch": 4957,
      "men": 4958,
      "虽然": 4959,
      "belie": 4960,
      "ular": 4961,
      "ents": 4962,
      "happy": 4963,
      "ically": 4964,
      "complete": 4965,
      "custom": 4966,
      "action": 4967,
      "ility": 4968,
      "replac": 4969,
      "推荐": 4970,
      "cons": 4971,
      "cord": 4972,
      "Mo": 4973,
      "vious": 4974,
      "nothing": 4975,
      "free": 4976,
      "ided": 4977,
      "15": 4978,
      "ces": 4979,
      "here": 4980,
      "ted": 4981,
      "exp": 4982,
      "pret": 4983,
      "一点": 4984,
      "head": 4985,
      "col": 4986,
      "What": 4987,
      "ail": 4988,
      "person": 4989,
      "astic": 4990,
      "anything": 4991,
      "pping": 4992,
      "ations": 4993,
      "les": 4994,
      "你们": 4995,
      "那么": 4996,
      "一些": 4997,
      "一直": 4998,
      "RE": 4999,
      "wait": 5000,
      "fic": 5001,
      "almost": 5002,
      "why": 5003,
      "each": 5004,
      "until": 5005,
      "应该": 5006,
      "trans": 5007,
      "quick": 5008,
      "wanted": 5009,
      "indows": 5010,
      "item": 5011,
      "他们": 5012,
      "只是": 5013,
      "失望": 5014,
      "购买": 5015,
      "sever": 5016,
      "device": 5017,
      "sw": 5018,
      "dy": 5019,
      "fig": 5020,
      "disappoint": 5021,
      "amp": 5022,
      "起来": 5023,
      "week": 5024,
      "stem": 5025,
      "open": 5026,
      "solut": 5027,
      "That": 5028,
      "purchase": 5029,
      "inksys": 5030,
      "hold": 5031,
      "mor": 5032,
      "night": 5033,
      "incl": 5034,
      "However": 5035,
      "pretty": 5036,
      "19": 5037,
      "dat": 5038,
      "效果": 5039,
      "weeks": 5040,
      "went": 5041,
      "gen": 5042,
      "ply": 5043,
      "model": 5044,
      "mix": 5045,
      "100": 5046,
      "sound": 5047,
      "att": 5048,
      "design": 5049,
      "PC": 5050,
      "ced": 5051,
      "ark": 5052,
      "reme": 5053,
      "cover": 5054,
      "dr": 5055,
      "several": 5056,
      "真是": 5057,
      "rel": 5058,
      "requ": 5059,
      "brush": 5060,
      "size": 5061,
      "收藏": 5062,
      "版本": 5063,
      "Dis": 5064,
      "least": 5065,
      "不要": 5066,
      "为什么": 5067,
      "便宜": 5068,
      "setting": 5069,
      "stu": 5070,
      "xt": 5071,
      "tern": 5072,
      "cheap": 5073,
      "took": 5074,
      "recei": 5075,
      "cap": 5076,
      "maker": 5077,
      "soft": 5078,
      "trying": 5079,
      "12": 5080,
      "might": 5081,
      "一本": 5082,
      "She": 5083,
      "pa": 5084,
      "cial": 5085,
      "ware": 5086,
      "dire": 5087,
      "gl": 5088,
      "HD": 5089,
      "今天": 5090,
      "声音": 5091,
      "characters": 5092,
      "mail": 5093,
      "根本": 5094,
      "ween": 5095,
      "tra": 5096,
      "All": 5097,
      "ran": 5098,
      "ict": 5099,
      "AT": 5100,
      "一张": 5101,
      "once": 5102,
      "enti": 5103,
      "Tax": 5104,
      "files": 5105,
      "IS": 5106,
      "ither": 5107,
      "between": 5108,
      "wonder": 5109,
      "Mey": 5110,
      "done": 5111,
      "button": 5112,
      "ele": 5113,
      "sed": 5114,
      "og": 5115,
      "care": 5116,
      "一般": 5117,
      "acob": 5118,
      "On": 5119,
      "hum": 5120,
      "ending": 5121,
      "system": 5122,
      "yet": 5123,
      "只有": 5124,
      "anyone": 5125,
      "whole": 5126,
      "One": 5127,
      "mess": 5128,
      "pay": 5129,
      "quite": 5130,
      "service": 5131,
      "50": 5132,
      "Pro": 5133,
      "cou": 5134,
      "cost": 5135,
      "battery": 5136,
      "scen": 5137,
      "pack": 5138,
      "enjoy": 5139,
      "Off": 5140,
      "正版": 5141,
      "电影": 5142,
      "fam": 5143,
      "aster": 5144,
      "gets": 5145,
      "电话": 5146,
      "icro": 5147,
      "Un": 5148,
      "mus": 5149,
      "llow": 5150,
      "couldn": 5151,
      "alf": 5152,
      "以前": 5153,
      "uring": 5154,
      "盗版": 5155,
      "ative": 5156,
      "以后": 5157,
      "Office": 5158,
      "网上": 5159,
      "stick": 5160,
      "fast": 5161,
      "face": 5162,
      "80": 5163,
      "出来": 5164,
      "故事": 5165,
      "ently": 5166,
      "experi": 5167,
      "Jacob": 5168,
      "num": 5169,
      "结果": 5170,
      "bas": 5171,
      "else": 5172,
      "St": 5173,
      "可是": 5174,
      "适合": 5175,
      "move": 5176,
      "ons": 5177,
      "60": 5178,
      "half": 5179,
      "isn": 5180,
      "next": 5181,
      "gin": 5182,
      "ith": 5183,
      "must": 5184,
      "web": 5185,
      "ago": 5186,
      "画面": 5187,
      "features": 5188,
      "keyboard": 5189,
      "Now": 5190,
      "takes": 5191,
      "aking": 5192,
      "有些": 5193,
      "Meyer": 5194,
      "GB": 5195,
      "mp": 5196,
      "支持": 5197,
      "happen": 5198,
      "Linksys": 5199,
      "ensive": 5200,
      "started": 5201,
      "开始": 5202,
      "软件": 5203,
      "data": 5204,
      "AL": 5205,
      "Qu": 5206,
      "ctive": 5207,
      "ling": 5208,
      "urbo": 5209,
      "full": 5210,
      "instead": 5211,
      "pie": 5212,
      "vamp": 5213,
      "cal": 5214,
      "ised": 5215,
      "ense": 5216,
      "Also": 5217,
      "fully": 5218,
      "11": 5219,
      "left": 5220,
      "dro": 5221,
      "ouch": 5222,
      "wasn": 5223,
      "change": 5224,
      "hu": 5225,
      "产品": 5226,
      "ider": 5227,
      "atch": 5228,
      "wilight": 5229,
      "season": 5230,
      "making": 5231,
      "buying": 5232,
      "couple": 5233,
      "ol": 5234,
      "NOT": 5235,
      "contro": 5236,
      "decided": 5237,
      "ond": 5238,
      "allow": 5239,
      "etc": 5240,
      "Windows": 5241,
      "这种": 5242,
      "main": 5243,
      "bably": 5244,
      "enter": 5245,
      "Not": 5246,
      "ron": 5247,
      "实在": 5248,
      "Ne": 5249,
      "aren": 5250,
      "这张": 5251,
      "bro": 5252,
      "phone": 5253,
      "upgr": 5254,
      "fail": 5255,
      "chang": 5256,
      "ability": 5257,
      "作者": 5258,
      "poss": 5259,
      "disappointed": 5260,
      "sk": 5261,
      "already": 5262,
      "ement": 5263,
      "光盘": 5264,
      "公司": 5265,
      "其他": 5266,
      "一定": 5267,
      "room": 5268,
      "deal": 5269,
      "ier": 5270,
      "cour": 5271,
      "kind": 5272,
      "建议": 5273,
      "llent": 5274,
      "ments": 5275,
      "cho": 5276,
      "defin": 5277,
      "Then": 5278,
      "medi": 5279,
      "不会": 5280,
      "loved": 5281,
      "mit": 5282,
      "val": 5283,
      "augh": 5284,
      "customer": 5285,
      "speed": 5286,
      "IT": 5287,
      "either": 5288,
      "ress": 5289,
      "super": 5290,
      "believe": 5291,
      "completely": 5292,
      "connection": 5293,
      "follow": 5294,
      "2008": 5295,
      "led": 5296,
      "送货": 5297,
      "arch": 5298,
      "probably": 5299,
      "ss": 5300,
      "company": 5301,
      "Re": 5302,
      "Wor": 5303,
      "THE": 5304,
      "card": 5305,
      "bot": 5306,
      "received": 5307,
      "case": 5308,
      "download": 5309,
      "Turbo": 5310,
      "told": 5311,
      "ook": 5312,
      "Twilight": 5313,
      "slow": 5314,
      "之后": 5315,
      "thin": 5316,
      "log": 5317,
      "called": 5318,
      "这是": 5319,
      "simple": 5320,
      "wish": 5321,
      "服务": 5322,
      "wouldn": 5323,
      "Ex": 5324,
      "job": 5325,
      "child": 5326,
      "easily": 5327,
      "使用": 5328,
      "previous": 5329,
      "gn": 5330,
      "ip": 5331,
      "plastic": 5332,
      "ized": 5333,
      "feature": 5334,
      "myself": 5335,
      "ale": 5336,
      "vies": 5337,
      "expensive": 5338,
      "figure": 5339,
      "sign": 5340,
      "ang": 5341,
      "process": 5342,
      "interest": 5343,
      "Se": 5344,
      "电脑": 5345,
      "那个": 5346,
      "sle": 5347,
      "的话": 5348,
      "ors": 5349,
      "ics": 5350,
      "plug": 5351,
      "To": 5352,
      "ator": 5353,
      "zing": 5354,
      "cially": 5355,
      "short": 5356,
      "world": 5357,
      "出版": 5358,
      "可能": 5359,
      "seen": 5360,
      "complain": 5361,
      "others": 5362,
      "products": 5363,
      "longer": 5364,
      "gave": 5365,
      "orig": 5366,
      "tions": 5367,
      "tax": 5368,
      "movies": 5369,
      "music": 5370,
      "MA": 5371,
      "mind": 5372,
      "user": 5373,
      "Micro": 5374,
      "ima": 5375,
      "ls": 5376,
      "site": 5377,
      "app": 5378,
      "issue": 5379,
      "issues": 5380,
      "ates": 5381,
      "finally": 5382,
      "includ": 5383,
      "origin": 5384,
      "来说": 5385,
      "特别": 5386,
      "cannot": 5387,
      "large": 5388,
      "band": 5389,
      "fan": 5390,
      "looks": 5391,
      "pain": 5392,
      "vis": 5393,
      "ying": 5394,
      "ides": 5395,
      "cri": 5396,
      "step": 5397,
      "ices": 5398,
      "这些": 5399,
      "cy": 5400,
      "kid": 5401,
      "sub": 5402,
      "Chr": 5403,
      "place": 5404,
      "baby": 5405,
      "作品": 5406,
      "生活": 5407,
      "ital": 5408,
      "ese": 5409,
      "ended": 5410,
      "brand": 5411,
      "date": 5412,
      "hope": 5413,
      "switch": 5414,
      "At": 5415,
      "音质": 5416,
      "AS": 5417,
      "With": 5418,
      "itely": 5419,
      "uit": 5420,
      "als": 5421,
      "running": 5422,
      "fi": 5423,
      "OR": 5424,
      "不到": 5425,
      "客服": 5426,
      "plan": 5427,
      "list": 5428,
      "ned": 5429,
      "function": 5430,
      "De": 5431,
      "XP": 5432,
      "house": 5433,
      "wrong": 5434,
      "simply": 5435,
      "功能": 5436,
      "清晰": 5437,
      "ones": 5438,
      "stars": 5439,
      "ters": 5440,
      "needed": 5441,
      "个人": 5442,
      "instru": 5443,
      "replacement": 5444,
      "family": 5445,
      "ery": 5446,
      "ness": 5447,
      "extra": 5448,
      "contin": 5449,
      "gener": 5450,
      "clip": 5451,
      "ship": 5452,
      "ken": 5453,
      "一部": 5454,
      "import": 5455,
      "2007": 5456,
      "excellent": 5457,
      "fill": 5458,
      "ared": 5459,
      "prov": 5460,
      "consider": 5461,
      "stop": 5462,
      "完全": 5463,
      "速度": 5464,
      "rele": 5465,
      "doing": 5466,
      "MP": 5467,
      "reli": 5468,
      "iced": 5469,
      "25": 5470,
      "whe": 5471,
      "其实": 5472,
      "ages": 5473,
      "Microsoft": 5474,
      "VE": 5475,
      "介绍": 5476,
      "拿到": 5477,
      "英文": 5478,
      "clear": 5479,
      "highly": 5480,
      "fix": 5481,
      "record": 5482,
      "word": 5483,
      "however": 5484,
      "everyone": 5485,
      "understand": 5486,
      "body": 5487,
      "好听": 5488,
      "学习": 5489,
      "weight": 5490,
      "poor": 5491,
      "ping": 5492,
      "sit": 5493,
      "star": 5494,
      "ount": 5495,
      "ath": 5496,
      "电视": 5497,
      "forman": 5498,
      "doc": 5499,
      "file": 5500,
      "touch": 5501,
      "course": 5502,
      "VER": 5503,
      "rant": 5504,
      "espe": 5505,
      "itself": 5506,
      "居然": 5507,
      "player": 5508,
      "especially": 5509,
      "bar": 5510,
      "firm": 5511,
      "format": 5512,
      "close": 5513,
      "对于": 5514,
      "这部": 5515,
      "ial": 5516,
      "antly": 5517,
      "suc": 5518,
      "rather": 5519,
      "posed": 5520,
      "store": 5521,
      "fit": 5522,
      "lack": 5523,
      "vor": 5524,
      "search": 5525,
      "appe": 5526,
      "number": 5527,
      "Ap": 5528,
      "TV": 5529,
      "rom": 5530,
      "vent": 5531,
      "本来": 5532,
      "food": 5533,
      "mber": 5534,
      "hot": 5535,
      "avail": 5536,
      "Pl": 5537,
      "par": 5538,
      "不了": 5539,
      "corder": 5540,
      "ordered": 5541,
      "lost": 5542,
      "surpr": 5543,
      "near": 5544,
      "Ste": 5545,
      "sl": 5546,
      "LE": 5547,
      "中文": 5548,
      "piece": 5549,
      "igh": 5550,
      "ner": 5551,
      "solute": 5552,
      "past": 5553,
      "不如": 5554,
      "只能": 5555,
      "要求": 5556,
      "felt": 5557,
      "cats": 5558,
      "Quick": 5559,
      "pad": 5560,
      "pict": 5561,
      "within": 5562,
      "strong": 5563,
      "experience": 5564,
      "一起": 5565,
      "无法": 5566,
      "itchen": 5567,
      "OU": 5568,
      "oth": 5569,
      "plot": 5570,
      "cop": 5571,
      "raz": 5572,
      "space": 5573,
      "40": 5574,
      "lear": 5575,
      "rible": 5576,
      "uses": 5577,
      "performan": 5578,
      "network": 5579,
      "Just": 5580,
      "wal": 5581,
      "definitely": 5582,
      "强烈": 5583,
      "清楚": 5584,
      "iness": 5585,
      "Don": 5586,
      "Vis": 5587,
      "someone": 5588,
      "save": 5589,
      "entire": 5590,
      "mom": 5591,
      "oper": 5592,
      "垃圾": 5593,
      "是不是": 5594,
      "plic": 5595,
      "resp": 5596,
      "Do": 5597,
      "send": 5598,
      "true": 5599,
      "igital": 5600,
      "quickly": 5601,
      "possible": 5602,
      "bed": 5603,
      "bread": 5604,
      "choo": 5605,
      "drives": 5606,
      "online": 5607,
      "needs": 5608,
      "later": 5609,
      "看看": 5610,
      "评论": 5611,
      "这里": 5612,
      "diffic": 5613,
      "ju": 5614,
      "pull": 5615,
      "ings": 5616,
      "ions": 5617,
      "New": 5618,
      "OS": 5619,
      "during": 5620,
      "email": 5621,
      "好看": 5622,
      "播放": 5623,
      "简单": 5624,
      "ines": 5625,
      "Ad": 5626,
      "99": 5627,
      "之前": 5628,
      "发货": 5629,
      "最后": 5630,
      "original": 5631,
      "Some": 5632,
      "eng": 5633,
      "stay": 5634,
      "Great": 5635,
      "returned": 5636,
      "maybe": 5637,
      "ib": 5638,
      "pes": 5639,
      "pri": 5640,
      "呵呵": 5641,
      "看过": 5642,
      "sell": 5643,
      "installed": 5644,
      "anno": 5645,
      "fective": 5646,
      "nor": 5647,
      "片子": 5648,
      "第二": 5649,
      "绝对": 5650,
      "说明": 5651,
      "rest": 5652,
      "absolute": 5653,
      "rill": 5654,
      "guess": 5655,
      "hor": 5656,
      "gether": 5657,
      "unately": 5658,
      "certain": 5659,
      "extreme": 5660,
      "regular": 5661,
      "daugh": 5662,
      "fur": 5663,
      "mas": 5664,
      "diap": 5665,
      "ING": 5666,
      "incre": 5667,
      "ank": 5668,
      "ults": 5669,
      "videos": 5670,
      "goes": 5671,
      "together": 5672,
      "Well": 5673,
      "amazing": 5674,
      "burn": 5675,
      "cable": 5676,
      "favor": 5677,
      "press": 5678,
      "Vista": 5679,
      "je": 5680,
      "exact": 5681,
      "ometer": 5682,
      "brew": 5683,
      "mine": 5684,
      "trim": 5685,
      "rec": 5686,
      "waste": 5687,
      "const": 5688,
      "says": 5689,
      "gam": 5690,
      "一看": 5691,
      "翻译": 5692,
      "haven": 5693,
      "Apple": 5694,
      "Jo": 5695,
      "ove": 5696,
      "ror": 5697,
      "access": 5698,
      "raw": 5699,
      "ES": 5700,
      "一次": 5701,
      "打开": 5702,
      "stuff": 5703,
      "lea": 5704,
      "saw": 5705,
      "vampire": 5706,
      "Tr": 5707,
      "sent": 5708,
      "以为": 5709,
      "部分": 5710,
      "配音": 5711,
      "mean": 5712,
      "pod": 5713,
      "ternal": 5714,
      "performance": 5715,
      "ny": 5716,
      "pass": 5717,
      "ins": 5718,
      "liked": 5719,
      "elect": 5720,
      "ires": 5721,
      "出现": 5722,
      "地方": 5723,
      "需要": 5724,
      "gear": 5725,
      "flash": 5726,
      "ont": 5727,
      "sheet": 5728,
      "available": 5729,
      "bor": 5730,
      "gir": 5731,
      "rid": 5732,
      "实用": 5733,
      "begin": 5734,
      "cool": 5735,
      "ney": 5736,
      "seemed": 5737,
      "shipping": 5738,
      "Flip": 5739,
      "oc": 5740,
      "不同": 5741,
      "基本": 5742,
      "cream": 5743,
      "thor": 5744,
      "ird": 5745,
      "ctor": 5746,
      "ient": 5747,
      "la": 5748,
      "印刷": 5749,
      "歌曲": 5750,
      "heart": 5751,
      "accur": 5752,
      "warrant": 5753,
      "creat": 5754,
      "fant": 5755,
      "tru": 5756,
      "daughter": 5757,
      "24": 5758,
      "Book": 5759,
      "aut": 5760,
      "世界": 5761,
      "方面": 5762,
      "ited": 5763,
      "often": 5764,
      "vert": 5765,
      "amount": 5766,
      "idea": 5767,
      "uri": 5768,
      "tem": 5769,
      "prom": 5770,
      "IP": 5771,
      "ption": 5772,
      "作为": 5773,
      "字幕": 5774,
      "ouble": 5775,
      "irst": 5776,
      "ift": 5777,
      "Over": 5778,
      "ia": 5779,
      "remo": 5780,
      "ustr": 5781,
      "camcorder": 5782,
      "four": 5783,
      "ric": 5784,
      "desk": 5785,
      "mention": 5786,
      "io": 5787,
      "Edition": 5788,
      "air": 5789,
      "pot": 5790,
      "corre": 5791,
      "Even": 5792,
      "upgrade": 5793,
      "thinking": 5794,
      "iet": 5795,
      "ms": 5796,
      "mouse": 5797,
      "降价": 5798,
      "scenes": 5799,
      "Bre": 5800,
      "exc": 5801,
      "fair": 5802,
      "check": 5803,
      "13": 5804,
      "历史": 5805,
      "proper": 5806,
      "urt": 5807,
      "gged": 5808,
      "replace": 5809,
      "instructions": 5810,
      "Com": 5811,
      "memor": 5812,
      "kept": 5813,
      "cept": 5814,
      "pop": 5815,
      "tail": 5816,
      "dogs": 5817,
      "warranty": 5818,
      "fall": 5819,
      "sat": 5820,
      "容易": 5821,
      "老师": 5822,
      "ature": 5823,
      "sugg": 5824,
      "extremely": 5825,
      "inform": 5826,
      "ably": 5827,
      "fortunately": 5828,
      "non": 5829,
      "ze": 5830,
      "所有": 5831,
      "电池": 5832,
      "wife": 5833,
      "pet": 5834,
      "CH": 5835,
      "MS": 5836,
      "bus": 5837,
      "level": 5838,
      "supposed": 5839,
      "spent": 5840,
      "stopped": 5841,
      "wonderful": 5842,
      "First": 5843,
      "确实": 5844,
      "internet": 5845,
      "absolutely": 5846,
      "itor": 5847,
      "roll": 5848,
      "unless": 5849,
      "TO": 5850,
      "安装": 5851,
      "iso": 5852,
      "itive": 5853,
      "friends": 5854,
      "difficult": 5855,
      "correct": 5856,
      "charge": 5857,
      "mixer": 5858,
      "16": 5859,
      "por": 5860,
      "竟然": 5861,
      "tiv": 5862,
      "note": 5863,
      "attach": 5864,
      "firmware": 5865,
      "LO": 5866,
      "fac": 5867,
      "ok": 5868,
      "impro": 5869,
      "tly": 5870,
      "几个": 5871,
      "ired": 5872,
      "special": 5873,
      "ques": 5874,
      "audi": 5875,
      "writing": 5876,
      "fre": 5877,
      "mal": 5878,
      "郁闷": 5879,
      "spend": 5880,
      "transfer": 5881,
      "human": 5882,
      "14": 5883,
      "test": 5884,
      "tas": 5885,
      "smo": 5886,
      "一种": 5887,
      "external": 5888,
      "Very": 5889,
      "sho": 5890,
      "addition": 5891,
      "given": 5892,
      "count": 5893,
      "一套": 5894,
      "这套": 5895,
      "reco": 5896,
      "18": 5897,
      "live": 5898,
      "type": 5899,
      "den": 5900,
      "matter": 5901,
      "两个": 5902,
      "市场": 5903,
      "conven": 5904,
      "finish": 5905,
      "present": 5906,
      "Every": 5907,
      "iP": 5908,
      "arri": 5909,
      "soon": 5910,
      "dep": 5911,
      "gone": 5912,
      "了解": 5913,
      "可惜": 5914,
      "回来": 5915,
      "封面": 5916,
      "系列": 5917,
      "novel": 5918,
      "第一次": 5919,
      "Christ": 5920,
      "name": 5921,
      "AND": 5922,
      "kids": 5923,
      "500": 5924,
      "商品": 5925,
      "美国": 5926,
      "这次": 5927,
      "beaut": 5928,
      "serious": 5929,
      "pedometer": 5930,
      "asing": 5931,
      "connected": 5932,
      "ED": 5933,
      "满意": 5934,
      "终于": 5935,
      "unk": 5936,
      "expected": 5937,
      "wer": 5938,
      "users": 5939,
      "single": 5940,
      "control": 5941,
      "退货": 5942,
      "ilt": 5943,
      "turned": 5944,
      "annoying": 5945,
      "cket": 5946,
      "aph": 5947,
      "ground": 5948,
      "counter": 5949,
      "ALL": 5950,
      "God": 5951,
      "cks": 5952,
      "wo": 5953,
      "尤其": 5954,
      "aring": 5955,
      "velo": 5956,
      "acting": 5957,
      "episo": 5958,
      "steps": 5959,
      "gan": 5960,
      "atic": 5961,
      "along": 5962,
      "acks": 5963,
      "prote": 5964,
      "90": 5965,
      "Net": 5966,
      "zer": 5967,
      "很大": 5968,
      "最好": 5969,
      "然后": 5970,
      "系统": 5971,
      "订单": 5972,
      "setup": 5973,
      "fund": 5974,
      "EN": 5975,
      "deli": 5976,
      "2009": 5977,
      "Steph": 5978,
      "af": 5979,
      "kill": 5980,
      "pick": 5981,
      "当时": 5982,
      "期待": 5983,
      "keys": 5984,
      "sometimes": 5985,
      "AR": 5986,
      "based": 5987,
      "歌词": 5988,
      "相信": 5989,
      "asy": 5990,
      "ste": 5991,
      "due": 5992,
      "computers": 5993,
      "cleaning": 5994,
      "watching": 5995,
      "Overall": 5996,
      "Can": 5997,
      "manual": 5998,
      "ming": 5999,
      "var": 6000,
      "另外": 6001,
      "后悔": 6002,
      "宝宝": 6003,
      "llar": 6004,
      "These": 6005,
      "looked": 6006,
      "class": 6007,
      "owned": 6008,
      "TurboTax": 6009,
      "update": 6010,
      "coming": 6011,
      "track": 6012,
      "descri": 6013,
      "Disc": 6014,
      "direct": 6015,
      "IL": 6016,
      "哈哈": 6017,
      "那些": 6018,
      "quot": 6019,
      "taking": 6020,
      "colle": 6021,
      "En": 6022,
      "pers": 6023,
      "pleased": 6024,
      "flaw": 6025,
      "range": 6026,
      "cha": 6027,
      "ding": 6028,
      "下来": 6029,
      "情节": 6030,
      "develo": 6031,
      "ends": 6032,
      "tally": 6033,
      "Ke": 6034,
      "flo": 6035,
      "wom": 6036,
      "wise": 6037,
      "为了": 6038,
      "消费": 6039,
      "英语": 6040,
      "选择": 6041,
      "contain": 6042,
      "ific": 6043,
      "twice": 6044,
      "standard": 6045,
      "bottom": 6046,
      "become": 6047,
      "usband": 6048,
      "iful": 6049,
      "exactly": 6050,
      "Spe": 6051,
      "lic": 6052,
      "方便": 6053,
      "盒子": 6054,
      "totally": 6055,
      "litter": 6056,
      "Moon": 6057,
      "Quicken": 6058,
      "Li": 6059,
      "jor": 6060,
      "song": 6061,
      "post": 6062,
      "easier": 6063,
      "happened": 6064,
      "huge": 6065,
      "gar": 6066,
      "意思": 6067,
      "backup": 6068,
      "older": 6069,
      "awn": 6070,
      "vol": 6071,
      "seconds": 6072,
      "break": 6073,
      "luck": 6074,
      "Exce": 6075,
      "Christmas": 6076,
      "Wall": 6077,
      "aim": 6078,
      "gift": 6079,
      "ray": 6080,
      "prof": 6081,
      "17": 6082,
      "cas": 6083,
      "grow": 6084,
      "husband": 6085,
      "相当": 6086,
      "comfort": 6087,
      "While": 6088,
      "important": 6089,
      "memory": 6090,
      "Bat": 6091,
      "Other": 6092,
      "gs": 6093,
      "gate": 6094,
      "changed": 6095,
      "docum": 6096,
      "进货": 6097,
      "refund": 6098,
      "forward": 6099,
      "youn": 6100,
      "adv": 6101,
      "ried": 6102,
      "built": 6103,
      "satis": 6104,
      "recogn": 6105,
      "alth": 6106,
      "frustr": 6107,
      "monitor": 6108,
      "shows": 6109,
      "DO": 6110,
      "How": 6111,
      "ux": 6112,
      "真正": 6113,
      "谢谢": 6114,
      "results": 6115,
      "消费者": 6116,
      "spr": 6117,
      "although": 6118,
      "fle": 6119,
      "ges": 6120,
      "mil": 6121,
      "yes": 6122,
      "小说": 6123,
      "除了": 6124,
      "yourself": 6125,
      "offer": 6126,
      "recommended": 6127,
      "message": 6128,
      "filter": 6129,
      "partic": 6130,
      "carry": 6131,
      "effect": 6132,
      "PS": 6133,
      "mid": 6134,
      "不知": 6135,
      "买来": 6136,
      "如此": 6137,
      "没什么": 6138,
      "inside": 6139,
      "major": 6140,
      "poin": 6141,
      "hoto": 6142,
      "favorite": 6143,
      "accurate": 6144,
      "54": 6145,
      "ump": 6146,
      "Why": 6147,
      "contact": 6148,
      "giving": 6149,
      "relation": 6150,
      "BU": 6151,
      "game": 6152,
      "ian": 6153,
      "ists": 6154,
      "compat": 6155,
      "manu": 6156,
      "option": 6157,
      "write": 6158,
      "shaver": 6159,
      "settings": 6160,
      "website": 6161,
      "pen": 6162,
      "sense": 6163,
      "ession": 6164,
      "teen": 6165,
      "Blu": 6166,
      "bs": 6167,
      "pan": 6168,
      "好像": 6169,
      "当然": 6170,
      "throw": 6171,
      "iting": 6172,
      "ities": 6173,
      "lots": 6174,
      "buttons": 6175,
      "foo": 6176,
      "today": 6177,
      "immedi": 6178,
      "print": 6179,
      "written": 6180,
      "其中": 6181,
      "到货": 6182,
      "帮助": 6183,
      "网站": 6184,
      "iron": 6185,
      "manufact": 6186,
      "OK": 6187,
      "bow": 6188,
      "gre": 6189,
      "ww": 6190,
      "aged": 6191,
      "hero": 6192,
      "disc": 6193,
      "perfectly": 6194,
      "Bu": 6195,
      "cli": 6196,
      "动画": 6197,
      "原来": 6198,
      "后来": 6199,
      "唱片": 6200,
      "工作": 6201,
      "认为": 6202,
      "那种": 6203,
      "adap": 6204,
      "lock": 6205,
      "ulous": 6206,
      "saying": 6207,
      "included": 6208,
      "picture": 6209,
      "girl": 6210,
      "suggest": 6211,
      "information": 6212,
      "fing": 6213,
      "necess": 6214,
      "ulti": 6215,
      "pressed": 6216,
      "scene": 6217,
      "interesting": 6218,
      "fat": 6219,
      "vices": 6220,
      "leave": 6221,
      "neg": 6222,
      "glad": 6223,
      "iPod": 6224,
      "sn": 6225,
      "vd": 6226,
      "ism": 6227,
      "dead": 6228,
      "opin": 6229,
      "parts": 6230,
      "plugged": 6231,
      "IR": 6232,
      "draw": 6233,
      "ream": 6234,
      "state": 6235,
      "stra": 6236,
      "adjust": 6237,
      "plac": 6238,
      "pose": 6239,
      "consist": 6240,
      "solution": 6241,
      "AC": 6242,
      "AM": 6243,
      "noticed": 6244,
      "useless": 6245,
      "ports": 6246,
      "Unfortunately": 6247,
      "beautiful": 6248,
      "ID": 6249,
      "ah": 6250,
      "mac": 6251,
      "图片": 6252,
      "昨天": 6253,
      "重要": 6254,
      "pocket": 6255,
      "graph": 6256,
      "wants": 6257,
      "properly": 6258,
      "dvd": 6259,
      "wall": 6260,
      "sty": 6261,
      "sex": 6262,
      "icks": 6263,
      "means": 6264,
      "loves": 6265,
      "concer": 6266,
      "gives": 6267,
      "straight": 6268,
      "RT": 6269,
      "cast": 6270,
      "sor": 6271,
      "下载": 6272,
      "严重": 6273,
      "情况": 6274,
      "错误": 6275,
      "exam": 6276,
      "Int": 6277,
      "autom": 6278,
      "author": 6279,
      "batteries": 6280,
      "continu": 6281,
      "ject": 6282,
      "business": 6283,
      "ats": 6284,
      "ountain": 6285,
      "display": 6286,
      "office": 6287,
      "black": 6288,
      "difference": 6289,
      "显示": 6290,
      "sequ": 6291,
      "ilar": 6292,
      "tee": 6293,
      "market": 6294,
      "Breaking": 6295,
      "Batman": 6296,
      "ST": 6297,
      "worse": 6298,
      "da": 6299,
      "rate": 6300,
      "兴趣": 6301,
      "如何": 6302,
      "影片": 6303,
      "想到": 6304,
      "简直": 6305,
      "ross": 6306,
      "crash": 6307,
      "Dawn": 6308,
      "equ": 6309,
      "stor": 6310,
      "plus": 6311,
      "success": 6312,
      "Intuit": 6313,
      "OD": 6314,
      "不行": 6315,
      "制作": 6316,
      "引进": 6317,
      "日本": 6318,
      "演唱": 6319,
      "build": 6320,
      "tool": 6321,
      "tooth": 6322,
      "VCD": 6323,
      "spo": 6324,
      "front": 6325,
      "trave": 6326,
      "claim": 6327,
      "techn": 6328,
      "diapers": 6329,
      "Bra": 6330,
      "Good": 6331,
      "影响": 6332,
      "能够": 6333,
      "oud": 6334,
      "noise": 6335,
      "Any": 6336,
      "formers": 6337,
      "interface": 6338,
      "smaller": 6339,
      "morning": 6340,
      "fied": 6341,
      "clipse": 6342,
      "sheets": 6343,
      "Two": 6344,
      "ged": 6345,
      "limit": 6346,
      "worst": 6347,
      "avy": 6348,
      "except": 6349,
      "OM": 6350,
      "ky": 6351,
      "push": 6352,
      "几天": 6353,
      "女儿": 6354,
      "直接": 6355,
      "碟片": 6356,
      "设计": 6357,
      "详细": 6358,
      "spec": 6359,
      "void": 6360,
      "larger": 6361,
      "razor": 6362,
      "particular": 6363,
      "immediately": 6364,
      "70": 6365,
      "bly": 6366,
      "usually": 6367,
      "und": 6368,
      "sleep": 6369,
      "including": 6370,
      "copy": 6371,
      "Trans": 6372,
      "pite": 6373,
      "uis": 6374,
      "下去": 6375,
      "所谓": 6376,
      "画质": 6377,
      "请问": 6378,
      "sec": 6379,
      "desktop": 6380,
      "smooth": 6381,
      "MB": 6382,
      "cing": 6383,
      "cent": 6384,
      "five": 6385,
      "fire": 6386,
      "ring": 6387,
      "trouble": 6388,
      "against": 6389,
      "guy": 6390,
      "hands": 6391,
      "personal": 6392,
      "cheaper": 6393,
      "Eclipse": 6394,
      "fro": 6395,
      "不太": 6396,
      "任何": 6397,
      "多少": 6398,
      "好书": 6399,
      "reci": 6400,
      "young": 6401,
      "gt": 6402,
      "hon": 6403,
      "une": 6404,
      "compared": 6405,
      "remember": 6406,
      "Con": 6407,
      "May": 6408,
      "Ser": 6409,
      "dark": 6410,
      "ili": 6411,
      "到底": 6412,
      "原版": 6413,
      "才能": 6414,
      "明显": 6415,
      "遗憾": 6416,
      "iny": 6417,
      "notice": 6418,
      "versions": 6419,
      "enjoyed": 6420,
      "opinion": 6421,
      "Yes": 6422,
      "slight": 6423,
      "error": 6424,
      "lead": 6425,
      "haps": 6426,
      "taken": 6427,
      "died": 6428,
      "paid": 6429,
      "AY": 6430,
      "Fin": 6431,
      "ake": 6432,
      "fut": 6433,
      "fans": 6434,
      "ler": 6435,
      "rating": 6436,
      "yog": 6437,
      "打电话": 6438,
      "这款": 6439,
      "麻烦": 6440,
      "boy": 6441,
      "istic": 6442,
      "solid": 6443,
      "curren": 6444,
      "failed": 6445,
      "Digital": 6446,
      "faster": 6447,
      "knew": 6448,
      "pu": 6449,
      "third": 6450,
      "white": 6451,
      "replaced": 6452,
      "package": 6453,
      "skin": 6454,
      "lid": 6455,
      "photo": 6456,
      "原因": 6457,
      "同时": 6458,
      "经常": 6459,
      "inch": 6460,
      "asure": 6461,
      "health": 6462,
      "quiet": 6463,
      "000": 6464,
      "aga": 6465,
      "sil": 6466,
      "init": 6467,
      "ane": 6468,
      "actor": 6469,
      "advert": 6470,
      "cups": 6471,
      "children": 6472,
      "Cut": 6473,
      "Since": 6474,
      "kitchen": 6475,
      "na": 6476,
      "treat": 6477,
      "uff": 6478,
      "令人": 6479,
      "屏幕": 6480,
      "文字": 6481,
      "精美": 6482,
      "heavy": 6483,
      "loc": 6484,
      "motor": 6485,
      "aper": 6486,
      "minute": 6487,
      "fresh": 6488,
      "ences": 6489,
      "above": 6490,
      "sum": 6491,
      "feels": 6492,
      "Son": 6493,
      "人物": 6494,
      "告诉": 6495,
      "tray": 6496,
      "release": 6497,
      "hoo": 6498,
      "multi": 6499,
      "wood": 6500,
      "anim": 6501,
      "vil": 6502,
      "aging": 6503,
      "signal": 6504,
      "chool": 6505,
      "我要": 6506,
      "till": 6507,
      "defective": 6508,
      "Inst": 6509,
      "broke": 6510,
      "VERY": 6511,
      "nearly": 6512,
      "cd": 6513,
      "remove": 6514,
      "unch": 6515,
      "Netgear": 6516,
      "Man": 6517,
      "ee": 6518,
      "sens": 6519,
      "不用": 6520,
      "北京": 6521,
      "国内": 6522,
      "态度": 6523,
      "看不": 6524,
      "知识": 6525,
      "这本": 6526,
      "销售": 6527,
      "heard": 6528,
      "weak": 6529,
      "color": 6530,
      "value": 6531,
      "Braun": 6532,
      "WRT": 6533,
      "dam": 6534,
      "arely": 6535,
      "appro": 6536,
      "perform": 6537,
      "boot": 6538,
      "upgrad": 6539,
      "relationship": 6540,
      "page": 6541,
      "上面": 6542,
      "也许": 6543,
      "价钱": 6544,
      "先生": 6545,
      "发行": 6546,
      "或者": 6547,
      "普通": 6548,
      "纸张": 6549,
      "联系": 6550,
      "applic": 6551,
      "obvious": 6552,
      "waiting": 6553,
      "truly": 6554,
      "Fire": 6555,
      "NE": 6556,
      "aver": 6557,
      "os": 6558,
      "shave": 6559,
      "sort": 6560,
      "esome": 6561,
      "icer": 6562,
      "ident": 6563,
      "ender": 6564,
      "temp": 6565,
      "collar": 6566,
      "figured": 6567,
      "certainly": 6568,
      "Stephen": 6569,
      "Oh": 6570,
      "SD": 6571,
      "专业": 6572,
      "实际": 6573,
      "客户": 6574,
      "很快": 6575,
      "机器": 6576,
      "考虑": 6577,
      "还要": 6578,
      "hear": 6579,
      "ams": 6580,
      "detail": 6581,
      "Although": 6582,
      "Amer": 6583,
      "San": 6584,
      "via": 6585,
      "blue": 6586,
      "keeps": 6587,
      "Americ": 6588,
      "Of": 6589,
      "hind": 6590,
      "iv": 6591,
      "mb": 6592,
      "不敢": 6593,
      "ister": 6594,
      "ries": 6595,
      "entertain": 6596,
      "yogurt": 6597,
      "Pr": 6598,
      "junk": 6599,
      "research": 6600,
      "lose": 6601,
      "agree": 6602,
      "choice": 6603,
      "incredi": 6604,
      "future": 6605,
      "dou": 6606,
      "emo": 6607,
      "sme": 6608,
      "不够": 6609,
      "不得": 6610,
      "儿子": 6611,
      "处理": 6612,
      "好多": 6613,
      "总是": 6614,
      "文化": 6615,
      "漂亮": 6616,
      "要是": 6617,
      "语言": 6618,
      "cted": 6619,
      "devices": 6620,
      "conf": 6621,
      "lood": 6622,
      "fault": 6623,
      "films": 6624,
      "designed": 6625,
      "wheel": 6626,
      "Transformers": 6627,
      "zz": 6628,
      "inder": 6629,
      "mag": 6630,
      "anymore": 6631,
      "prefer": 6632,
      "reliable": 6633,
      "negative": 6634,
      "ience": 6635,
      "oom": 6636,
      "rit": 6637,
      "不少": 6638,
      "甚至": 6639,
      "粗糙": 6640,
      "inart": 6641,
      "onto": 6642,
      "comb": 6643,
      "bother": 6644,
      "answer": 6645,
      "THIS": 6646,
      "stuck": 6647,
      "bowl": 6648,
      "necessary": 6649,
      "32": 6650,
      "base": 6651,
      "sad": 6652,
      "prin": 6653,
      "safe": 6654,
      "address": 6655,
      "pair": 6656,
      "improve": 6657,
      "uisinart": 6658,
      "HA": 6659,
      "dle": 6660,
      "gain": 6661,
      "hit": 6662,
      "售后": 6663,
      "是否": 6664,
      "首歌": 6665,
      "alog": 6666,
      "door": 6667,
      "2003": 6668,
      "click": 6669,
      "amazon": 6670,
      "miss": 6671,
      "games": 6672,
      "Hard": 6673,
      "dry": 6674,
      "link": 6675,
      "toaster": 6676,
      "apart": 6677,
      "Its": 6678,
      "loose": 6679,
      "portable": 6680,
      "minator": 6681,
      "similar": 6682,
      "inclu": 6683,
      "Once": 6684,
      "surprised": 6685,
      "comfortable": 6686,
      "example": 6687,
      "味道": 6688,
      "继续": 6689,
      "难道": 6690,
      "ined": 6691,
      "heat": 6692,
      "terrible": 6693,
      "result": 6694,
      "basic": 6695,
      "logy": 6696,
      "arrived": 6697,
      "OF": 6698,
      "hate": 6699,
      "trimmer": 6700,
      "Stephenie": 6701,
      "45": 6702,
      "Le": 6703,
      "Link": 6704,
      "Per": 6705,
      "none": 6706,
      "上当": 6707,
      "那样": 6708,
      "enty": 6709,
      "itech": 6710,
      "reviewers": 6711,
      "learn": 6712,
      "recently": 6713,
      "Bond": 6714,
      "Or": 6715,
      "school": 6716,
      "accept": 6717,
      "became": 6718,
      "llars": 6719,
      "wash": 6720,
      "impressed": 6721,
      "final": 6722,
      "handle": 6723,
      "storage": 6724,
      "Dark": 6725,
      "LY": 6726,
      "一段": 6727,
      "价值": 6728,
      "小时": 6729,
      "左右": 6730,
      "方式": 6731,
      "方法": 6732,
      "毕竟": 6733,
      "ising": 6734,
      "arth": 6735,
      "question": 6736,
      "Buy": 6737,
      "BC": 6738,
      "Min": 6739,
      "seeing": 6740,
      "modem": 6741,
      "electric": 6742,
      "Excel": 6743,
      "BE": 6744,
      "Cuisinart": 6745,
      "Kitchen": 6746,
      "PR": 6747,
      "Seas": 6748,
      "ech": 6749,
      "hy": 6750,
      "loud": 6751,
      "zen": 6752,
      "分钟": 6753,
      "年代": 6754,
      "水平": 6755,
      "没想到": 6756,
      "耳机": 6757,
      "阅读": 6758,
      "rot": 6759,
      "shut": 6760,
      "covered": 6761,
      "Word": 6762,
      "强烈要求": 6763,
      "frequ": 6764,
      "pi": 6765,
      "sus": 6766,
      "icking": 6767,
      "runs": 6768,
      "period": 6769,
      "arently": 6770,
      "constantly": 6771,
      "tempt": 6772,
      "excited": 6773,
      "Special": 6774,
      "effects": 6775,
      "IC": 6776,
      "nam": 6777,
      "技术": 6778,
      "本身": 6779,
      "注意": 6780,
      "肯定": 6781,
      "解决": 6782,
      "购物": 6783,
      "过来": 6784,
      "风格": 6785,
      "atur": 6786,
      "ask": 6787,
      "asked": 6788,
      "stru": 6789,
      "local": 6790,
      "explain": 6791,
      "scr": 6792,
      "liter": 6793,
      "feeling": 6794,
      "directly": 6795,
      "GH": 6796,
      "HP": 6797,
      "Sup": 6798,
      "ior": 6799,
      "inux": 6800,
      "reset": 6801,
      "mother": 6802,
      "comment": 6803,
      "awesome": 6804,
      "allows": 6805,
      "aid": 6806,
      "land": 6807,
      "人员": 6808,
      "准备": 6809,
      "别人": 6810,
      "更好": 6811,
      "normal": 6812,
      "taste": 6813,
      "Like": 6814,
      "teeth": 6815,
      "Knight": 6816,
      "eat": 6817,
      "swe": 6818,
      "toast": 6819,
      "edding": 6820,
      "overall": 6821,
      "asonic": 6822,
      "higher": 6823,
      "fantastic": 6824,
      "document": 6825,
      "egg": 6826,
      "event": 6827,
      "windows": 6828,
      "不多": 6829,
      "只要": 6830,
      "快递": 6831,
      "检测": 6832,
      "精彩": 6833,
      "维修": 6834,
      "读者": 6835,
      "还好": 6836,
      "配送": 6837,
      "anks": 6838,
      "outh": 6839,
      "arm": 6840,
      "behind": 6841,
      "area": 6842,
      "blade": 6843,
      "happens": 6844,
      "hub": 6845,
      "listen": 6846,
      "95": 6847,
      "ging": 6848,
      "ied": 6849,
      "uni": 6850,
      "impossible": 6851,
      "disk": 6852,
      "selves": 6853,
      "purchasing": 6854,
      "added": 6855,
      "pressure": 6856,
      "installation": 6857,
      "drop": 6858,
      "bt": 6859,
      "bum": 6860,
      "blood": 6861,
      "gri": 6862,
      "十分": 6863,
      "好好": 6864,
      "得到": 6865,
      "感动": 6866,
      "操作": 6867,
      "放在": 6868,
      "教材": 6869,
      "高兴": 6870,
      "train": 6871,
      "antic": 6872,
      "gotten": 6873,
      "playing": 6874,
      "flat": 6875,
      "decent": 6876,
      "watched": 6877,
      "broken": 6878,
      "essional": 6879,
      "daily": 6880,
      "BO": 6881,
      "Om": 6882,
      "alone": 6883,
      "vampires": 6884,
      "horrible": 6885,
      "Bo": 6886,
      "digital": 6887,
      "tt": 6888,
      "吸引": 6889,
      "塑料": 6890,
      "找到": 6891,
      "此书": 6892,
      "解释": 6893,
      "评书": 6894,
      "moving": 6895,
      "outside": 6896,
      "grind": 6897,
      "creen": 6898,
      "voice": 6899,
      "出版社": 6900,
      "whether": 6901,
      "fairly": 6902,
      "Season": 6903,
      "Pan": 6904,
      "bat": 6905,
      "ev": 6906,
      "fountain": 6907,
      "paper": 6908,
      "useful": 6909,
      "eyes": 6910,
      "programs": 6911,
      "episodes": 6912,
      "manufactur": 6913,
      "曲目": 6914,
      "机子": 6915,
      "真实": 6916,
      "第三": 6917,
      "舒服": 6918,
      "重新": 6919,
      "dist": 6920,
      "scri": 6921,
      "helpful": 6922,
      "moment": 6923,
      "mentioned": 6924,
      "fight": 6925,
      "tu": 6926,
      "grinder": 6927,
      "create": 6928,
      "changes": 6929,
      "complaint": 6930,
      "audio": 6931,
      "spray": 6932,
      "tit": 6933,
      "两天": 6934,
      "几乎": 6935,
      "千万": 6936,
      "总之": 6937,
      "明白": 6938,
      "本人": 6939,
      "看起来": 6940,
      "ina": 6941,
      "inv": 6942,
      "ange": 6943,
      "realize": 6944,
      "Omron": 6945,
      "Log": 6946,
      "ded": 6947,
      "grill": 6948,
      "nail": 6949,
      "six": 6950,
      "iculous": 6951,
      "upid": 6952,
      "emp": 6953,
      "actual": 6954,
      "known": 6955,
      "cred": 6956,
      "drink": 6957,
      "controll": 6958,
      "style": 6959,
      "honest": 6960,
      "average": 6961,
      "Earth": 6962,
      "High": 6963,
      "SP": 6964,
      "tast": 6965,
      "ye": 6966,
      "一句": 6967,
      "不上": 6968,
      "亚马": 6969,
      "仔细": 6970,
      "估计": 6971,
      "充电": 6972,
      "唯一": 6973,
      "完美": 6974,
      "并且": 6975,
      "送到": 6976,
      "thick": 6977,
      "stri": 6978,
      "measure": 6979,
      "please": 6980,
      "umb": 6981,
      "Maybe": 6982,
      "亚马逊": 6983,
      "SO": 6984,
      "Up": 6985,
      "ipod": 6986,
      "vac": 6987,
      "lier": 6988,
      "somewhat": 6989,
      "early": 6990,
      "fold": 6991,
      "bring": 6992,
      "positive": 6993,
      "Black": 6994,
      "Video": 6995,
      "ball": 6996,
      "cry": 6997,
      "广告": 6998,
      "录音": 6999,
      "总体": 7000,
      "理解": 7001,
      "目前": 7002,
      "送来": 7003,
      "ener": 7004,
      "lower": 7005,
      "pregn": 7006,
      "ished": 7007,
      "starts": 7008,
      "curity": 7009,
      "words": 7010,
      "beginning": 7011,
      "additional": 7012,
      "satisfied": 7013,
      "compatible": 7014,
      "adapter": 7015,
      "HO": 7016,
      "avoid": 7017,
      "gine": 7018,
      "lat": 7019,
      "vable": 7020,
      "repe": 7021,
      "warm": 7022,
      "urig": 7023,
      "300": 7024,
      "mater": 7025,
      "一天": 7026,
      "丰富": 7027,
      "书中": 7028,
      "接受": 7029,
      "比如": 7030,
      "由于": 7031,
      "碟子": 7032,
      "超级": 7033,
      "atically": 7034,
      "lim": 7035,
      "atever": 7036,
      "despite": 7037,
      "powerful": 7038,
      "dropped": 7039,
      "电视剧": 7040,
      "WD": 7041,
      "total": 7042,
      "sets": 7043,
      "ampers": 7044,
      "feet": 7045,
      "wired": 7046,
      "ONE": 7047,
      "opened": 7048,
      "Keurig": 7049,
      "floor": 7050,
      "smell": 7051,
      "Dr": 7052,
      "Easy": 7053,
      "MO": 7054,
      "Ma": 7055,
      "Sy": 7056,
      "bag": 7057,
      "ga": 7058,
      "不想": 7059,
      "主要": 7060,
      "买回来": 7061,
      "人家": 7062,
      "听到": 7063,
      "太贵": 7064,
      "很差": 7065,
      "提高": 7066,
      "无论": 7067,
      "样子": 7068,
      "每个": 7069,
      "过去": 7070,
      "ades": 7071,
      "hoping": 7072,
      "Disney": 7073,
      "convenient": 7074,
      "songs": 7075,
      "bon": 7076,
      "gest": 7077,
      "rup": 7078,
      "reach": 7079,
      "stupid": 7080,
      "usion": 7081,
      "tional": 7082,
      "Only": 7083,
      "Fe": 7084,
      "Wire": 7085,
      "剧情": 7086,
      "基础": 7087,
      "学者": 7088,
      "完整": 7089,
      "很棒": 7090,
      "每天": 7091,
      "浪费": 7092,
      "爱情": 7093,
      "现场": 7094,
      "管理": 7095,
      "表演": 7096,
      "通过": 7097,
      "cked": 7098,
      "returning": 7099,
      "following": 7100,
      "milk": 7101,
      "演唱会": 7102,
      "multiple": 7103,
      "Panasonic": 7104,
      "AD": 7105,
      "yond": 7106,
      "ster": 7107,
      "stain": 7108,
      "sele": 7109,
      "forget": 7110,
      "metal": 7111,
      "sold": 7112,
      "que": 7113,
      "core": 7114,
      "turns": 7115,
      "screw": 7116,
      "appli": 7117,
      "Chris": 7118,
      "slightly": 7119,
      "Logitech": 7120,
      "EE": 7121,
      "Lo": 7122,
      "fits": 7123,
      "lly": 7124,
      "law": 7125,
      "lines": 7126,
      "国家": 7127,
      "小孩": 7128,
      "性价": 7129,
      "整个": 7130,
      "来越": 7131,
      "每次": 7132,
      "永远": 7133,
      "演员": 7134,
      "越来越": 7135,
      "黑色": 7136,
      "isk": 7137,
      "trust": 7138,
      "agate": 7139,
      "Because": 7140,
      "talking": 7141,
      "considering": 7142,
      "respon": 7143,
      "说明书": 7144,
      "Au": 7145,
      "Har": 7146,
      "ba": 7147,
      "gy": 7148,
      "pages": 7149,
      "vir": 7150,
      "ano": 7151,
      "anti": 7152,
      "attempt": 7153,
      "Thanks": 7154,
      "anyway": 7155,
      "pract": 7156,
      "mini": 7157,
      "basically": 7158,
      "Star": 7159,
      "woman": 7160,
      "technical": 7161,
      "08": 7162,
      "Co": 7163,
      "From": 7164,
      "center": 7165,
      "hang": 7166,
      "书店": 7167,
      "台湾": 7168,
      "块钱": 7169,
      "数据": 7170,
      "来看": 7171,
      "的确": 7172,
      "能力": 7173,
      "记得": 7174,
      "dollars": 7175,
      "shot": 7176,
      "bucks": 7177,
      "hardware": 7178,
      "machines": 7179,
      "effective": 7180,
      "juicer": 7181,
      "deliver": 7182,
      "Finally": 7183,
      "Fur": 7184,
      "Sha": 7185,
      "UR": 7186,
      "bright": 7187,
      "ives": 7188,
      "tic": 7189,
      "ables": 7190,
      "tract": 7191,
      "sud": 7192,
      "options": 7193,
      "ffic": 7194,
      "ension": 7195,
      "funny": 7196,
      "crit": 7197,
      "tivity": 7198,
      "develop": 7199,
      "toothbrush": 7200,
      "latest": 7201,
      "response": 7202,
      "By": 7203,
      "人生": 7204,
      "办法": 7205,
      "想要": 7206,
      "更加": 7207,
      "进行": 7208,
      "送给": 7209,
      "tight": 7210,
      "preci": 7211,
      "continue": 7212,
      "middle": 7213,
      "性价比": 7214,
      "Po": 7215,
      "Sh": 7216,
      "ances": 7217,
      "feed": 7218,
      "cell": 7219,
      "ease": 7220,
      "putting": 7221,
      "netbook": 7222,
      "imagine": 7223,
      "ibility": 7224,
      "advertised": 7225,
      "sudden": 7226,
      "bage": 7227,
      "brow": 7228,
      "dough": 7229,
      "flow": 7230,
      "一遍": 7231,
      "全部": 7232,
      "心情": 7233,
      "换货": 7234,
      "有人": 7235,
      "经济": 7236,
      "评价": 7237,
      "redu": 7238,
      "leg": 7239,
      "impress": 7240,
      "cook": 7241,
      "actions": 7242,
      "disappointment": 7243,
      "Disk": 7244,
      "experien": 7245,
      "finished": 7246,
      "600": 7247,
      "Aid": 7248,
      "Sim": 7249,
      "fly": 7250,
      "sem": 7251,
      "plenty": 7252,
      "coat": 7253,
      "2004": 7254,
      "deser": 7255,
      "intern": 7256,
      "vision": 7257,
      "provide": 7258,
      "classic": 7259,
      "Still": 7260,
      "gig": 7261,
      "关于": 7262,
      "刚刚": 7263,
      "别的": 7264,
      "名字": 7265,
      "妈妈": 7266,
      "提供": 7267,
      "最近": 7268,
      "看着": 7269,
      "过程": 7270,
      "tea": 7271,
      "2006": 7272,
      "knows": 7273,
      "speak": 7274,
      "models": 7275,
      "pieces": 7276,
      "limited": 7277,
      "publ": 7278,
      "BBC": 7279,
      "Dri": 7280,
      "GE": 7281,
      "Linux": 7282,
      "acity": 7283,
      "began": 7284,
      "nother": 7285,
      "terri": 7286,
      "installing": 7287,
      "helps": 7288,
      "followed": 7289,
      "Plus": 7290,
      "ridiculous": 7291,
      "manufacturer": 7292,
      "Another": 7293,
      "Lu": 7294,
      "YOU": 7295,
      "afe": 7296,
      "sal": 7297,
      "不怎么": 7298,
      "似乎": 7299,
      "后面": 7300,
      "大师": 7301,
      "待机": 7302,
      "没货": 7303,
      "编辑": 7304,
      "而已": 7305,
      "而是": 7306,
      "订购": 7307,
      "讲解": 7308,
      "这书": 7309,
      "ory": 7310,
      "ories": 7311,
      "shoo": 7312,
      "likely": 7313,
      "reader": 7314,
      "themselves": 7315,
      "blender": 7316,
      "rub": 7317,
      "gging": 7318,
      "loaded": 7319,
      "telling": 7320,
      "Seagate": 7321,
      "recording": 7322,
      "Tech": 7323,
      "barely": 7324,
      "cu": 7325,
      "laugh": 7326,
      "paren": 7327,
      "invol": 7328,
      "edition": 7329,
      "security": 7330,
      "across": 7331,
      "scale": 7332,
      "minor": 7333,
      "customers": 7334,
      "situ": 7335,
      "pictures": 7336,
      "walk": 7337,
      "doubt": 7338,
      "gb": 7339,
      "ium": 7340,
      "nar": 7341,
      "ture": 7342,
      "关系": 7343,
      "成为": 7344,
      "成功": 7345,
      "时代": 7346,
      "歌手": 7347,
      "acy": 7348,
      "becomes": 7349,
      "worry": 7350,
      "indic": 7351,
      "ously": 7352,
      "father": 7353,
      "played": 7354,
      "Most": 7355,
      "Joh": 7356,
      "invest": 7357,
      "48": 7358,
      "CT": 7359,
      "OY": 7360,
      "micro": 7361,
      "ses": 7362,
      "remain": 7363,
      "repair": 7364,
      "separ": 7365,
      "wear": 7366,
      "ants": 7367,
      "earlier": 7368,
      "hairs": 7369,
      "regard": 7370,
      "menu": 7371,
      "released": 7372,
      "points": 7373,
      "travel": 7374,
      "22": 7375,
      "55": 7376,
      "Best": 7377,
      "Go": 7378,
      "Love": 7379,
      "UP": 7380,
      "一年": 7381,
      "两张": 7382,
      "包括": 7383,
      "参考": 7384,
      "同样": 7385,
      "大概": 7386,
      "快点": 7387,
      "怀疑": 7388,
      "有没有": 7389,
      "许多": 7390,
      "beat": 7391,
      "ager": 7392,
      "wards": 7393,
      "position": 7394,
      "chance": 7395,
      "complaints": 7396,
      "image": 7397,
      "appears": 7398,
      "created": 7399,
      "FOR": 7400,
      "Get": 7401,
      "Ha": 7402,
      "ME": 7403,
      "Our": 7404,
      "Sm": 7405,
      "ek": 7406,
      "ns": 7407,
      "wol": 7408,
      "zoom": 7409,
      "active": 7410,
      "whatever": 7411,
      "routers": 7412,
      "guys": 7413,
      "1000": 7414,
      "Works": 7415,
      "diaper": 7416,
      "LOVE": 7417,
      "professional": 7418,
      "automatically": 7419,
      "Her": 7420,
      "Saga": 7421,
      "Who": 7422,
      "升级": 7423,
      "回复": 7424,
      "太差": 7425,
      "用户": 7426,
      "算是": 7427,
      "结局": 7428,
      "颜色": 7429,
      "首先": 7430,
      "atten": 7431,
      "altern": 7432,
      "deep": 7433,
      "trash": 7434,
      "compar": 7435,
      "condition": 7436,
      "okay": 7437,
      "John": 7438,
      "Ac": 7439,
      "Me": 7440,
      "late": 7441,
      "atr": 7442,
      "organ": 7443,
      "unes": 7444,
      "appreci": 7445,
      "dialog": 7446,
      "mistake": 7447,
      "require": 7448,
      "TaxCut": 7449,
      "juice": 7450,
      "further": 7451,
      "actors": 7452,
      "Instead": 7453,
      "IF": 7454,
      "King": 7455,
      "Let": 7456,
      "Pe": 7457,
      "Power": 7458,
      "lay": 7459,
      "win": 7460,
      "信息": 7461,
      "几次": 7462,
      "分析": 7463,
      "就算": 7464,
      "欣赏": 7465,
      "目录": 7466,
      "ref": 7467,
      "stren": 7468,
      "admit": 7469,
      "shar": 7470,
      "perhaps": 7471,
      "mostly": 7472,
      "techno": 7473,
      "provided": 7474,
      "Bl": 7475,
      "Is": 7476,
      "Vo": 7477,
      "sour": 7478,
      "zed": 7479,
      "thumb": 7480,
      "priced": 7481,
      "lessly": 7482,
      "herself": 7483,
      "dont": 7484,
      "forever": 7485,
      "friendly": 7486,
      "signific": 7487,
      "notebook": 7488,
      "Canon": 7489,
      "credit": 7490,
      "Acer": 7491,
      "Home": 7492,
      "din": 7493,
      "groom": 7494,
      "不可": 7495,
      "同学": 7496,
      "想象": 7497,
      "意义": 7498,
      "曾经": 7499,
      "标准": 7500,
      "珍藏": 7501,
      "force": 7502,
      "loss": 7503,
      "bots": 7504,
      "fol": 7505,
      "addle": 7506,
      "talk": 7507,
      "sounds": 7508,
      "directions": 7509,
      "ILL": 7510,
      "动画片": 7511,
      "JOY": 7512,
      "WE": 7513,
      "bal": 7514,
      "rand": 7515,
      "acc": 7516,
      "usb": 7517,
      "unable": 7518,
      "config": 7519,
      "compact": 7520,
      "returns": 7521,
      "clearly": 7522,
      "choose": 7523,
      "Joker": 7524,
      "born": 7525,
      "correctly": 7526,
      "scratch": 7527,
      "28": 7528,
      "Cru": 7529,
      "Here": 7530,
      "Mic": 7531,
      "Pampers": 7532,
      "dur": 7533,
      "linksys": 7534,
      "之一": 7535,
      "买过": 7536,
      "以上": 7537,
      "像是": 7538,
      "初学者": 7539,
      "可爱": 7540,
      "回事": 7541,
      "晚上": 7542,
      "有所": 7543,
      "有趣": 7544,
      "网络": 7545,
      "ingly": 7546,
      "upon": 7547,
      "ums": 7548,
      "connections": 7549,
      "capacity": 7550,
      "taxes": 7551,
      "appear": 7552,
      "21": 7553,
      "400": 7554,
      "Sing": 7555,
      "Sure": 7556,
      "male": 7557,
      "anger": 7558,
      "ands": 7559,
      "lease": 7560,
      "icing": 7561,
      "anywhere": 7562,
      "focus": 7563,
      "history": 7564,
      "blan": 7565,
      "forms": 7566,
      "throughout": 7567,
      "effort": 7568,
      "requires": 7569,
      "general": 7570,
      "depend": 7571,
      "episode": 7572,
      "various": 7573,
      "attention": 7574,
      "Cus": 7575,
      "D版": 7576,
      "TT": 7577,
      "信号": 7578,
      "变成": 7579,
      "品质": 7580,
      "回家": 7581,
      "国产": 7582,
      "外观": 7583,
      "学生": 7584,
      "差不多": 7585,
      "至少": 7586,
      "赠品": 7587,
      "inking": 7588,
      "ica": 7589,
      "nel": 7590,
      "bud": 7591,
      "syn": 7592,
      "Play": 7593,
      "moments": 7594,
      "streng": 7595,
      "Custom": 7596,
      "Ar": 7597,
      "II": 7598,
      "UN": 7599,
      "cise": 7600,
      "hes": 7601,
      "ially": 7602,
      "natur": 7603,
      "info": 7604,
      "ison": 7605,
      "attemp": 7606,
      "account": 7607,
      "beyond": 7608,
      "Thank": 7609,
      "reser": 7610,
      "bles": 7611,
      "opening": 7612,
      "media": 7613,
      "learned": 7614,
      "portray": 7615,
      "35": 7616,
      "Ro": 7617,
      "SM": 7618,
      "乐队": 7619,
      "充满": 7620,
      "内存": 7621,
      "反正": 7622,
      "资料": 7623,
      "anced": 7624,
      "report": 7625,
      "stud": 7626,
      "role": 7627,
      "cold": 7628,
      "purpose": 7629,
      "Inter": 7630,
      "aware": 7631,
      "expecting": 7632,
      "expectations": 7633,
      "199": 7634,
      "respond": 7635,
      "pointing": 7636,
      "folks": 7637,
      "JOYO": 7638,
      "CP": 7639,
      "Too": 7640,
      "refer": 7641,
      "ises": 7642,
      "ley": 7643,
      "max": 7644,
      "otherwise": 7645,
      "shaving": 7646,
      "MacBook": 7647,
      "missing": 7648,
      "holds": 7649,
      "occas": 7650,
      "garbage": 7651,
      "sorry": 7652,
      "undred": 7653,
      "Sony": 7654,
      "eventually": 7655,
      "material": 7656,
      "MI": 7657,
      "Ok": 7658,
      "Sw": 7659,
      "Will": 7660,
      "ather": 7661,
      "aks": 7662,
      "text": 7663,
      "不再": 7664,
      "不管": 7665,
      "中心": 7666,
      "全面": 7667,
      "内地": 7668,
      "单词": 7669,
      "明明": 7670,
      "看来": 7671,
      "经历": 7672,
      "视频": 7673,
      "那里": 7674,
      "马上": 7675,
      "deter": 7676,
      "consu": 7677,
      "trad": 7678,
      "tel": 7679,
      "grand": 7680,
      "die": 7681,
      "drivers": 7682,
      "typ": 7683,
      "starting": 7684,
      "solve": 7685,
      "fiction": 7686,
      "costs": 7687,
      "fixed": 7688,
      "women": 7689,
      "container": 7690,
      "Hu": 7691,
      "Please": 7692,
      "TA": 7693,
      "WH": 7694,
      "master": 7695,
      "nd": 7696,
      "oven": 7697,
      "err": 7698,
      "assu": 7699,
      "robot": 7700,
      "utter": 7701,
      "meet": 7702,
      "upd": 7703,
      "exist": 7704,
      "reasons": 7705,
      "frozen": 7706,
      "American": 7707,
      "Boo": 7708,
      "Des": 7709,
      "SE": 7710,
      "bing": 7711,
      "cking": 7712,
      "round": 7713,
      "rated": 7714,
      "一款": 7715,
      "不出": 7716,
      "书籍": 7717,
      "事情": 7718,
      "品牌": 7719,
      "感受": 7720,
      "打算": 7721,
      "研究": 7722,
      "社会": 7723,
      "ering": 7724,
      "below": 7725,
      "common": 7726,
      "irrit": 7727,
      "lasted": 7728,
      "realized": 7729,
      "keeping": 7730,
      "bigger": 7731,
      "himself": 7732,
      "lume": 7733,
      "humans": 7734,
      "walking": 7735,
      "frustrating": 7736,
      "contacted": 7737,
      "strength": 7738,
      "CE": 7739,
      "Ti": 7740,
      "dest": 7741,
      "gon": 7742,
      "kno": 7743,
      "mouth": 7744,
      "ases": 7745,
      "met": 7746,
      "likes": 7747,
      "tele": 7748,
      "tage": 7749,
      "orton": 7750,
      "printer": 7751,
      "izes": 7752,
      "minim": 7753,
      "spending": 7754,
      "corn": 7755,
      "waited": 7756,
      "items": 7757,
      "director": 7758,
      "careful": 7759,
      "engine": 7760,
      "questions": 7761,
      "www": 7762,
      "literally": 7763,
      "23": 7764,
      "26": 7765,
      "blow": 7766,
      "pump": 7767,
      "ride": 7768,
      "一半": 7769,
      "不仅": 7770,
      "享受": 7771,
      "免费": 7772,
      "反应": 7773,
      "发展": 7774,
      "图像": 7775,
      "基亚": 7776,
      "当年": 7777,
      "早就": 7778,
      "是因为": 7779,
      "最大": 7780,
      "没法": 7781,
      "精致": 7782,
      "艺术": 7783,
      "认识": 7784,
      "诺基亚": 7785,
      "通知": 7786,
      "音像": 7787,
      "顾客": 7788,
      "thus": 7789,
      "rep": 7790,
      "editing": 7791,
      "ung": 7792,
      "workout": 7793,
      "manually": 7794,
      "waff": 7795,
      "brands": 7796,
      "respons": 7797,
      "seriously": 7798,
      "battle": 7799,
      "Customer": 7800,
      "360": 7801,
      "BD": 7802,
      "Out": 7803,
      "Rob": 7804,
      "TS": 7805,
      "Ul": 7806,
      "Wes": 7807,
      "hundred": 7808,
      "mm": 7809,
      "pound": 7810,
      "tiny": 7811,
      "living": 7812,
      "moder": 7813,
      "upload": 7814,
      "solved": 7815,
      "carafe": 7816,
      "marri": 7817,
      "cute": 7818,
      "drama": 7819,
      "glish": 7820,
      "possib": 7821,
      "processor": 7822,
      "concerned": 7823,
      "current": 7824,
      "27": 7825,
      "BS": 7826,
      "ctivity": 7827,
      "match": 7828,
      "上海": 7829,
      "下午": 7830,
      "具体": 7831,
      "动作": 7832,
      "太多": 7833,
      "心理": 7834,
      "担心": 7835,
      "收录": 7836,
      "更是": 7837,
      "缺货": 7838,
      "ency": 7839,
      "advice": 7840,
      "apo": 7841,
      "plays": 7842,
      "flav": 7843,
      "awful": 7844,
      "functions": 7845,
      "share": 7846,
      "biggest": 7847,
      "joystick": 7848,
      "required": 7849,
      "humor": 7850,
      "apparently": 7851,
      "surprise": 7852,
      "razy": 7853,
      "prior": 7854,
      "electron": 7855,
      "temper": 7856,
      "Series": 7857,
      "frequently": 7858,
      "internal": 7859,
      "technology": 7860,
      "29": 7861,
      "Ab": 7862,
      "Cons": 7863,
      "Iron": 7864,
      "Norton": 7865,
      "squ": 7866,
      "inde": 7867,
      "rem": 7868,
      "aspect": 7869,
      "stur": 7870,
      "rote": 7871,
      "moved": 7872,
      "proof": 7873,
      "readers": 7874,
      "saved": 7875,
      "Indi": 7876,
      "pred": 7877,
      "volume": 7878,
      "shipped": 7879,
      "ength": 7880,
      "leaves": 7881,
      "parents": 7882,
      "PA": 7883,
      "TW": 7884,
      "bes": 7885,
      "wrote": 7886,
      "不值": 7887,
      "不足": 7888,
      "中间": 7889,
      "以及": 7890,
      "侯宝": 7891,
      "做工": 7892,
      "全是": 7893,
      "区别": 7894,
      "各种": 7895,
      "女人": 7896,
      "幽默": 7897,
      "教育": 7898,
      "整体": 7899,
      "星期": 7900,
      "有用": 7901,
      "流行": 7902,
      "自然": 7903,
      "负责": 7904,
      "wasted": 7905,
      "lives": 7906,
      "abs": 7907,
      "conv": 7908,
      "concl": 7909,
      "ills": 7910,
      "seller": 7911,
      "upgraded": 7912,
      "Wireless": 7913,
      "development": 7914,
      "侯宝林": 7915,
      "Jam": 7916,
      "Sa": 7917,
      "bur": 7918,
      "dim": 7919,
      "htt": 7920,
      "lan": 7921,
      "length": 7922,
      "mir": 7923,
      "held": 7924,
      "chose": 7925,
      "usual": 7926,
      "apped": 7927,
      "commun": 7928,
      "ATE": 7929,
      "romance": 7930,
      "brewing": 7931,
      "placed": 7932,
      "photos": 7933,
      "sensitive": 7934,
      "incredibly": 7935,
      "HE": 7936,
      "batch": 7937,
      "fab": 7938,
      "mill": 7939,
      "pat": 7940,
      "rice": 7941,
      "一切": 7942,
      "于是": 7943,
      "其它": 7944,
      "再也": 7945,
      "加上": 7946,
      "大陆": 7947,
      "尽快": 7948,
      "感到": 7949,
      "文章": 7950,
      "正常": 7951,
      "民族": 7952,
      "等等": 7953,
      "类似": 7954,
      "精神": 7955,
      "经验": 7956,
      "重复": 7957,
      "tian": 7958,
      "fell": 7959,
      "ultim": 7960,
      "duct": 7961,
      "hasn": 7962,
      "hassle": 7963,
      "werewol": 7964,
      "prep": 7965,
      "phys": 7966,
      "voir": 7967,
      "stores": 7968,
      "calls": 7969,
      "barking": 7970,
      "boring": 7971,
      "chap": 7972,
      "BUY": 7973,
      "hooked": 7974,
      "include": 7975,
      "experienced": 7976,
      "http": 7977,
      "Che": 7978,
      "Col": 7979,
      "His": 7980,
      "Ren": 7981,
      "Sp": 7982,
      "bul": 7983,
      "kit": 7984,
      "pour": 7985,
      "rout": 7986,
      "rash": 7987,
      "terms": 7988,
      "ilities": 7989,
      "ational": 7990,
      "intuit": 7991,
      "lights": 7992,
      "prem": 7993,
      "realistic": 7994,
      "famili": 7995,
      "filled": 7996,
      "poorly": 7997,
      "Everything": 7998,
      "finger": 7999,
      "Hardcover": 8000,
      "Single": 8001,
      "occasion": 8002,
      "TI": 8003,
      "Would": 8004,
      "cir": 8005,
      "sac": 8006,
      "也好": 8007,
      "曲子": 8008,
      "redi": 8009,
      "isting": 8010,
      "hael": 8011,
      "usable": 8012,
      "compe": 8013,
      "death": 8014,
      "blades": 8015,
      "auto": 8016,
      "finding": 8017,
      "odd": 8018,
      "handy": 8019,
      "disappointing": 8020,
      "tells": 8021,
      "fantasy": 8022,
      "consistent": 8023,
      "controller": 8024,
      "random": 8025,
      "Cl": 8026,
      "SL": 8027,
      "Set": 8028,
      "bi": 8029,
      "cro": 8030,
      "fed": 8031,
      "gress": 8032,
      "rd": 8033,
      "ingredi": 8034,
      "ston": 8035,
      "earth": 8036,
      "disconnect": 8037,
      "stories": 8038,
      "readings": 8039,
      "ANY": 8040,
      "cali": 8041,
      "changing": 8042,
      "collection": 8043,
      "BUT": 8044,
      "application": 8045,
      "SanDisk": 8046,
      "Furminator": 8047,
      "AP": 8048,
      "GRE": 8049,
      "ben": 8050,
      "cum": 8051,
      "evil": 8052,
      "iant": 8053,
      "py": 8054,
      "上网": 8055,
      "关注": 8056,
      "及时": 8057,
      "哪里": 8058,
      "家里": 8059,
      "幸福": 8060,
      "怎样": 8061,
      "有限": 8062,
      "歌迷": 8063,
      "死机": 8064,
      "演奏": 8065,
      "背景": 8066,
      "香港": 8067,
      "reboot": 8068,
      "ision": 8069,
      "lips": 8070,
      "irth": 8071,
      "default": 8072,
      "exer": 8073,
      "2000": 8074,
      "izing": 8075,
      "spir": 8076,
      "smart": 8077,
      "phones": 8078,
      "writer": 8079,
      "Does": 8080,
      "constru": 8081,
      "gaming": 8082,
      "audience": 8083,
      "Anyway": 8084,
      "initial": 8085,
      "strugg": 8086,
      "events": 8087,
      "llywood": 8088,
      "suddenly": 8089,
      "Michael": 8090,
      "Western": 8091,
      "49": 8092,
      "800": 8093,
      "App": 8094,
      "Bas": 8095,
      "Cam": 8096,
      "GO": 8097,
      "La": 8098,
      "Live": 8099,
      "crazy": 8100,
      "mary": 8101,
      "sou": 8102,
      "sized": 8103,
      "ert": 8104,
      "vet": 8105,
      "tial": 8106,
      "mechan": 8107,
      "wet": 8108,
      "dish": 8109,
      "discovered": 8110,
      "raft": 8111,
      "brought": 8112,
      "warning": 8113,
      "receive": 8114,
      "cutting": 8115,
      "cooking": 8116,
      "drag": 8117,
      "direction": 8118,
      "paying": 8119,
      "packaging": 8120,
      "MAC": 8121,
      "improved": 8122,
      "secure": 8123,
      "atrical": 8124,
      "Cull": 8125,
      "Fi": 8126,
      "WOR": 8127,
      "rad": 8128,
      "sending": 8129,
      "三个": 8130,
      "下单": 8131,
      "人们": 8132,
      "十年": 8133,
      "厂家": 8134,
      "发音": 8135,
      "回忆": 8136,
      "图书": 8137,
      "多次": 8138,
      "宣传": 8139,
      "家庭": 8140,
      "就要": 8141,
      "开心": 8142,
      "文件": 8143,
      "欺骗": 8144,
      "活动": 8145,
      "纸质": 8146,
      "超过": 8147,
      "震撼": 8148,
      "ution": 8149,
      "ched": 8150,
      "iding": 8151,
      "kets": 8152,
      "wel": 8153,
      "exper": 8154,
      "ules": 8155,
      "pleas": 8156,
      "intro": 8157,
      "Nothing": 8158,
      "content": 8159,
      "eye": 8160,
      "catch": 8161,
      "joyo": 8162,
      "laptops": 8163,
      "believable": 8164,
      "atively": 8165,
      "appreciate": 8166,
      "AB": 8167,
      "WI": 8168,
      "birth": 8169,
      "jum": 8170,
      "spot": 8171,
      "eral": 8172,
      "iss": 8173,
      "ali": 8174,
      "robots": 8175,
      "areas": 8176,
      "complic": 8177,
      "ples": 8178,
      "poten": 8179,
      "ulty": 8180,
      "reviewer": 8181,
      "Hope": 8182,
      "surface": 8183,
      "Dell": 8184,
      "leaving": 8185,
      "printing": 8186,
      "Drive": 8187,
      "dialogue": 8188,
      "configur": 8189,
      "ingredients": 8190,
      "250": 8191,
      "Bot": 8192,
      "Led": 8193,
      "Mc": 8194,
      "double": 8195,
      "hurt": 8196,
      "kers": 8197,
      "pic": 8198,
      "pul": 8199,
      "yed": 8200,
      "一大": 8201,
      "不像": 8202,
      "主题": 8203,
      "各位": 8204,
      "坚持": 8205,
      "导演": 8206,
      "属于": 8207,
      "感谢": 8208,
      "投诉": 8209,
      "演出": 8210,
      "照片": 8211,
      "短信": 8212,
      "观点": 8213,
      "inser": 8214,
      "inexpensive": 8215,
      "ache": 8216,
      "comic": 8217,
      "compan": 8218,
      "everyday": 8219,
      "dates": 8220,
      "provides": 8221,
      "Adams": 8222,
      "meaning": 8223,
      "iety": 8224,
      "spoil": 8225,
      "particularly": 8226,
      "reservoir": 8227,
      "ARE": 8228,
      "Did": 8229,
      "Have": 8230,
      "Save": 8231,
      "brill": 8232,
      "attr": 8233,
      "stream": 8234,
      "comed": 8235,
      "essenti": 8236,
      "antage": 8237,
      "caused": 8238,
      "willing": 8239,
      "twist": 8240,
      "tries": 8241,
      "ield": 8242,
      "joke": 8243,
      "married": 8244,
      "802": 8245,
      "operating": 8246,
      "girls": 8247,
      "removed": 8248,
      "recognize": 8249,
      "natural": 8250,
      "DE": 8251,
      "avi": 8252,
      "bers": 8253,
      "flight": 8254,
      "gle": 8255,
      "mic": 8256,
      "pup": 8257,
      "一位": 8258,
      "不买": 8259,
      "不起": 8260,
      "之间": 8261,
      "传统": 8262,
      "保证": 8263,
      "决定": 8264,
      "同事": 8265,
      "听说": 8266,
      "外国": 8267,
      "大人": 8268,
      "很少": 8269,
      "感情": 8270,
      "摇滚": 8271,
      "有时": 8272,
      "环境": 8273,
      "自动": 8274,
      "英国": 8275,
      "行为": 8276,
      "超值": 8277,
      "跟着": 8278,
      "轻松": 8279,
      "rew": 8280,
      "ties": 8281,
      "urch": 8282,
      "unlike": 8283,
      "weird": 8284,
      "concept": 8285,
      "plate": 8286,
      "extr": 8287,
      "suf": 8288,
      "background": 8289,
      "一个月": 8290,
      "shouldn": 8291,
      "powered": 8292,
      "Macbook": 8293,
      "nicely": 8294,
      "Movie": 8295,
      "entertaining": 8296,
      "fficient": 8297,
      "IE": 8298,
      "Med": 8299,
      "Ray": 8300,
      "Wides": 8301,
      "dent": 8302,
      "tough": 8303,
      "window": 8304,
      "stated": 8305,
      "heating": 8306,
      "forced": 8307,
      "types": 8308,
      "adding": 8309,
      "standing": 8310,
      "exception": 8311,
      "regret": 8312,
      "relco": 8313,
      "speeds": 8314,
      "downloaded": 8315,
      "operate": 8316,
      "English": 8317,
      "improvement": 8318,
      "pregnant": 8319,
      "possibly": 8320,
      "Ledger": 8321,
      "Widescreen": 8322,
      "52": 8323,
      "Cop": 8324,
      "Lit": 8325,
      "War": 8326,
      "gust": 8327,
      "rush": 8328,
      "vs": 8329,
      "之作": 8330,
      "企业": 8331,
      "印象": 8332,
      "即使": 8333,
      "反复": 8334,
      "发生": 8335,
      "合理": 8336,
      "大学": 8337,
      "带来": 8338,
      "按照": 8339,
      "改变": 8340,
      "易懂": 8341,
      "深入": 8342,
      "生命": 8343,
      "相机": 8344,
      "相比": 8345,
      "至于": 8346,
      "花絮": 8347,
      "表现": 8348,
      "道理": 8349,
      "青春": 8350,
      "erous": 8351,
      "atives": 8352,
      "verse": 8353,
      "neck": 8354,
      "comments": 8355,
      "tape": 8356,
      "DVDs": 8357,
      "THING": 8358,
      "turning": 8359,
      "Hollywood": 8360,
      "198": 8361,
      "thorough": 8362,
      "checked": 8363,
      "attachment": 8364,
      "shots": 8365,
      "picked": 8366,
      "healthy": 8367,
      "honestly": 8368,
      "Highly": 8369,
      "sturdy": 8370,
      "sacri": 8371,
      "75": 8372,
      "Cap": 8373,
      "LL": 8374,
      "MY": 8375,
      "Rele": 8376,
      "cul": 8377,
      "gent": 8378,
      "ius": 8379,
      "lish": 8380,
      "sides": 8381,
      "alot": 8382,
      "hell": 8383,
      "Theatrical": 8384,
      "makers": 8385,
      "imm": 8386,
      "saving": 8387,
      "everywhere": 8388,
      "presso": 8389,
      "decide": 8390,
      "iously": 8391,
      "holding": 8392,
      "glass": 8393,
      "interested": 8394,
      "functional": 8395,
      "generation": 8396,
      "sitting": 8397,
      "romantic": 8398,
      "recognized": 8399,
      "fingers": 8400,
      "marriage": 8401,
      "GREAT": 8402,
      "introdu": 8403,
      "Again": 8404,
      "WAY": 8405,
      "bunch": 8406,
      "rs": 8407,
      "tend": 8408,
      "两次": 8409,
      "习惯": 8410,
      "优惠": 8411,
      "国际": 8412,
      "好玩": 8413,
      "小时候": 8414,
      "必须": 8415,
      "快乐": 8416,
      "我会": 8417,
      "根据": 8418,
      "正在": 8419,
      "没用": 8420,
      "电子": 8421,
      "童年": 8422,
      "纯粹": 8423,
      "缺点": 8424,
      "inc": 8425,
      "resolution": 8426,
      "env": 8427,
      "unplug": 8428,
      "confl": 8429,
      "bugs": 8430,
      "indiv": 8431,
      "dies": 8432,
      "newer": 8433,
      "flu": 8434,
      "rench": 8435,
      "crap": 8436,
      "reasonable": 8437,
      "Char": 8438,
      "cording": 8439,
      "freezer": 8440,
      "drops": 8441,
      "imagin": 8442,
      "中文版": 8443,
      "基本上": 8444,
      "市场价": 8445,
      "protect": 8446,
      "documents": 8447,
      "suggested": 8448,
      "currently": 8449,
      "initially": 8450,
      "rubber": 8451,
      "blanket": 8452,
      "temperature": 8453,
      "Bay": 8454,
      "Ju": 8455,
      "Many": 8456,
      "Oz": 8457,
      "Was": 8458,
      "kin": 8459,
      "lbs": 8460,
      "mes": 8461,
      "inum": 8462,
      "arms": 8463,
      "stair": 8464,
      "neigh": 8465,
      "soci": 8466,
      "shop": 8467,
      "somewhere": 8468,
      "wanting": 8469,
      "helped": 8470,
      "showed": 8471,
      "tale": 8472,
      "missed": 8473,
      "angle": 8474,
      "cycle": 8475,
      "switched": 8476,
      "functionality": 8477,
      "foot": 8478,
      "specif": 8479,
      "applications": 8480,
      "Perhaps": 8481,
      "hesit": 8482,
      "familiar": 8483,
      "Release": 8484,
      "CO": 8485,
      "LD": 8486,
      "Nano": 8487,
      "TB": 8488,
      "TER": 8489,
      "Wind": 8490,
      "sand": 8491,
      "sick": 8492,
      "zy": 8493,
      "一首": 8494,
      "上去": 8495,
      "不然": 8496,
      "东东": 8497,
      "主角": 8498,
      "儿童": 8499,
      "关键": 8500,
      "努力": 8501,
      "实惠": 8502,
      "很漂亮": 8503,
      "心灵": 8504,
      "心里": 8505,
      "我用": 8506,
      "演绎": 8507,
      "现象": 8508,
      "用来": 8509,
      "磁带": 8510,
      "纪念": 8511,
      "练习": 8512,
      "网页": 8513,
      "色彩": 8514,
      "豪华": 8515,
      "进入": 8516,
      "stable": 8517,
      "lean": 8518,
      "wide": 8519,
      "grad": 8520,
      "icky": 8521,
      "tribut": 8522,
      "obs": 8523,
      "Norelco": 8524,
      "hardly": 8525,
      "ggies": 8526,
      "mark": 8527,
      "colate": 8528,
      "request": 8529,
      "capture": 8530,
      "fails": 8531,
      "failure": 8532,
      "Plan": 8533,
      "selling": 8534,
      "delivery": 8535,
      "Firewire": 8536,
      "incredible": 8537,
      "HAVE": 8538,
      "title": 8539,
      "repeated": 8540,
      "Christian": 8541,
      "situation": 8542,
      "suffer": 8543,
      "individ": 8544,
      "07": 8545,
      "09": 8546,
      "Fo": 8547,
      "Gal": 8548,
      "Touch": 8549,
      "cru": 8550,
      "dream": 8551,
      "gas": 8552,
      "jump": 8553,
      "pure": 8554,
      "sen": 8555,
      "esme": 8556,
      "espresso": 8557,
      "sticks": 8558,
      "lete": 8559,
      "nois": 8560,
      "updates": 8561,
      "contr": 8562,
      "exchange": 8563,
      "resto": 8564,
      "somehow": 8565,
      "scoo": 8566,
      "cker": 8567,
      "faith": 8568,
      "ixar": 8569,
      "valu": 8570,
      "attached": 8571,
      "Having": 8572,
      "source": 8573,
      "environ": 8574,
      "120": 8575,
      "Bought": 8576,
      "Fl": 8577,
      "GR": 8578,
      "TR": 8579,
      "iT": 8580,
      "mat": 8581,
      "poo": 8582,
      "pow": 8583,
      "spl": 8584,
      "table": 8585,
      "保护": 8586,
      "入门": 8587,
      "几张": 8588,
      "增加": 8589,
      "大多": 8590,
      "差劲": 8591,
      "很难": 8592,
      "思考": 8593,
      "我家": 8594,
      "模式": 8595,
      "海报": 8596,
      "涨价": 8597,
      "生产": 8598,
      "移动": 8599,
      "细节": 8600,
      "错过": 8601,
      "降到": 8602,
      "thrill": 8603,
      "anie": 8604,
      "ony": 8605,
      "orge": 8606,
      "edit": 8607,
      "omin": 8608,
      "bel": 8609,
      "produce": 8610,
      "driver": 8611,
      "inted": 8612,
      "manage": 8613,
      "party": 8614,
      "complex": 8615,
      "counts": 8616,
      "heads": 8617,
      "numerous": 8618,
      "basis": 8619,
      "medium": 8620,
      "subst": 8621,
      "Add": 8622,
      "Comp": 8623,
      "fleas": 8624,
      "silly": 8625,
      "KitchenAid": 8626,
      "durable": 8627,
      "errors": 8628,
      "intuitive": 8629,
      "Both": 8630,
      "Wiz": 8631,
      "Zo": 8632,
      "ahead": 8633,
      "bark": 8634,
      "block": 8635,
      "gad": 8636,
      "mand": 8637,
      "moun": 8638,
      "incess": 8639,
      "thetic": 8640,
      "toy": 8641,
      "leak": 8642,
      "section": 8643,
      "loy": 8644,
      "trou": 8645,
      "shedding": 8646,
      "production": 8647,
      "hopes": 8648,
      "timer": 8649,
      "interview": 8650,
      "stock": 8651,
      "shame": 8652,
      "closed": 8653,
      "Product": 8654,
      "numbers": 8655,
      "generally": 8656,
      "description": 8657,
      "college": 8658,
      "ville": 8659,
      "includes": 8660,
      "sharp": 8661,
      "complicated": 8662,
      "configuration": 8663,
      "Wizard": 8664,
      "01": 8665,
      "Chi": 8666,
      "Del": 8667,
      "EX": 8668,
      "Je": 8669,
      "Never": 8670,
      "Read": 8671,
      "ban": 8672,
      "lest": 8673,
      "uum": 8674,
      "三星": 8675,
      "上下": 8676,
      "不及": 8677,
      "从来": 8678,
      "体会": 8679,
      "几年": 8680,
      "删除": 8681,
      "前面": 8682,
      "却是": 8683,
      "听听": 8684,
      "商业": 8685,
      "城市": 8686,
      "外壳": 8687,
      "实话": 8688,
      "当初": 8689,
      "思想": 8690,
      "感兴趣": 8691,
      "技巧": 8692,
      "指挥": 8693,
      "有意思": 8694,
      "杀毒": 8695,
      "模糊": 8696,
      "等到": 8697,
      "等待": 8698,
      "组合": 8699,
      "节目": 8700,
      "认真": 8701,
      "货到": 8702,
      "赠送": 8703,
      "达到": 8704,
      "连接": 8705,
      "随便": 8706,
      "ancy": 8707,
      "eds": 8708,
      "legs": 8709,
      "belt": 8710,
      "los": 8711,
      "vill": 8712,
      "viol": 8713,
      "suppose": 8714,
      "怎么回事": 8715,
      "boxes": 8716,
      "breaking": 8717,
      "第一张": 8718,
      "strap": 8719,
      "More": 8720,
      "painful": 8721,
      "surprising": 8722,
      "强烈推荐": 8723,
      "stays": 8724,
      "popular": 8725,
      "convenience": 8726,
      "building": 8727,
      "obviously": 8728,
      "script": 8729,
      "delivered": 8730,
      "updated": 8731,
      "destro": 8732,
      "64": 8733,
      "AA": 8734,
      "AV": 8735,
      "CA": 8736,
      "KE": 8737,
      "mass": 8738,
      "pal": 8739,
      "uary": 8740,
      "reality": 8741,
      "arget": 8742,
      "adult": 8743,
      "project": 8744,
      "respect": 8745,
      "plete": 8746,
      "supply": 8747,
      "adequ": 8748,
      "Before": 8749,
      "charged": 8750,
      "shape": 8751,
      "relatively": 8752,
      "ledge": 8753,
      "relig": 8754,
      "zero": 8755,
      "variety": 8756,
      "developed": 8757,
      "offered": 8758,
      "IRS": 8759,
      "crashed": 8760,
      "Mino": 8761,
      "public": 8762,
      "Internet": 8763,
      "modern": 8764,
      "DSL": 8765,
      "IVE": 8766,
      "Pixar": 8767,
      "RAM": 8768,
      "Wi": 8769,
      "Watch": 8770,
      "WALL": 8771,
      "aker": 8772,
      "bra": 8773,
      "nut": 8774,
      "rac": 8775,
      "ught": 8776,
      "一边": 8777,
      "仍然": 8778,
      "单曲": 8779,
      "反映": 8780,
      "总的": 8781,
      "愿意": 8782,
      "成长": 8783,
      "推出": 8784,
      "提醒": 8785,
      "改进": 8786,
      "深刻": 8787,
      "父母": 8788,
      "理论": 8789,
      "白色": 8790,
      "符合": 8791,
      "美丽": 8792,
      "记录": 8793,
      "assem": 8794,
      "accom": 8795,
      "terday": 8796,
      "suit": 8797,
      "boil": 8798,
      "actica": 8799,
      "diss": 8800,
      "mug": 8801,
      "offers": 8802,
      "players": 8803,
      "itional": 8804,
      "carto": 8805,
      "country": 8806,
      "150": 8807,
      "allowed": 8808,
      "ipment": 8809,
      "images": 8810,
      "occur": 8811,
      "Complete": 8812,
      "sugges": 8813,
      "factory": 8814,
      "weren": 8815,
      "grounds": 8816,
      "Excellent": 8817,
      "continued": 8818,
      "specific": 8819,
      "recipes": 8820,
      "Sansa": 8821,
      "suspect": 8822,
      "千万别": 8823,
      "flavor": 8824,
      "Media": 8825,
      "Car": 8826,
      "Fran": 8827,
      "Gu": 8828,
      "IGH": 8829,
      "OW": 8830,
      "Try": 8831,
      "mally": 8832,
      "pli": 8833,
      "ug": 8834,
      "uch": 8835,
      "ude": 8836,
      "yo": 8837,
      "road": 8838,
      "progress": 8839,
      "polic": 8840,
      "server": 8841,
      "filters": 8842,
      "Where": 8843,
      "transform": 8844,
      "mixed": 8845,
      "Program": 8846,
      "Sec": 8847,
      "prompt": 8848,
      "ALLY": 8849,
      "Stephanie": 8850,
      "equipment": 8851,
      "pik": 8852,
      "Super": 8853,
      "sweet": 8854,
      "training": 8855,
      "nails": 8856,
      "separate": 8857,
      "benef": 8858,
      "brilliant": 8859,
      "Planet": 8860,
      "iTunes": 8861,
      "HS": 8862,
      "Had": 8863,
      "IG": 8864,
      "Jes": 8865,
      "KS": 8866,
      "Mon": 8867,
      "Pet": 8868,
      "WPA": 8869,
      "cine": 8870,
      "hood": 8871,
      "wedding": 8872,
      "依然": 8873,
      "划痕": 8874,
      "利浦": 8875,
      "半年": 8876,
      "听不": 8877,
      "哪个": 8878,
      "商场": 8879,
      "外面": 8880,
      "多年": 8881,
      "失去": 8882,
      "套装": 8883,
      "存在": 8884,
      "小心": 8885,
      "微软": 8886,
      "拥有": 8887,
      "格式": 8888,
      "正品": 8889,
      "相声": 8890,
      "突然": 8891,
      "album": 8892,
      "ado": 8893,
      "absor": 8894,
      "units": 8895,
      "thank": 8896,
      "compare": 8897,
      "therefore": 8898,
      "ization": 8899,
      "brain": 8900,
      "lturi": 8901,
      "personality": 8902,
      "carefully": 8903,
      "Second": 8904,
      "promised": 8905,
      "frustrated": 8906,
      "sequel": 8907,
      "emotional": 8908,
      "Kingston": 8909,
      "Galactica": 8910,
      "Jesus": 8911,
      "04": 8912,
      "39": 8913,
      "Mar": 8914,
      "Water": 8915,
      "backs": 8916,
      "hated": 8917,
      "ub": 8918,
      "ining": 8919,
      "remind": 8920,
      "retail": 8921,
      "orter": 8922,
      "station": 8923,
      "lets": 8924,
      "vey": 8925,
      "icare": 8926,
      "nose": 8927,
      "ups": 8928,
      "unfortunately": 8929,
      "shif": 8930,
      "shown": 8931,
      "produced": 8932,
      "itek": 8933,
      "sci": 8934,
      "2005": 8935,
      "charging": 8936,
      "typing": 8937,
      "awk": 8938,
      "thoughts": 8939,
      "tons": 8940,
      "cameras": 8941,
      "tellig": 8942,
      "swadd": 8943,
      "basket": 8944,
      "bottle": 8945,
      "previously": 8946,
      "appy": 8947,
      "considered": 8948,
      "pulled": 8949,
      "burning": 8950,
      "falls": 8951,
      "described": 8952,
      "Otherwise": 8953,
      "footage": 8954,
      "clips": 8955,
      "automatic": 8956,
      "continues": 8957,
      "confusing": 8958,
      "significant": 8959,
      "attempts": 8960,
      "James": 8961,
      "WITH": 8962,
      "extras": 8963,
      "Batt": 8964,
      "Fron": 8965,
      "IB": 8966,
      "SS": 8967,
      "Wal": 8968,
      "WILL": 8969,
      "danger": 8970,
      "fy": 8971,
      "saga": 8972,
      "van": 8973,
      "一台": 8974,
      "一页": 8975,
      "之类": 8976,
      "仙剑": 8977,
      "价位": 8978,
      "健康": 8979,
      "内心": 8980,
      "受益": 8981,
      "变化": 8982,
      "好久": 8983,
      "想起": 8984,
      "慢慢": 8985,
      "手感": 8986,
      "提示": 8987,
      "最新": 8988,
      "精选": 8989,
      "美好": 8990,
      "著名": 8991,
      "计算": 8992,
      "音响": 8993,
      "音效": 8994,
      "飞利浦": 8995,
      "intellig": 8996,
      "ening": 8997,
      "losing": 8998,
      "moves": 8999,
      "Their": 9000,
      "teach": 9001,
      "thanks": 9002,
      "scroll": 9003,
      "diet": 9004,
      "intended": 9005,
      "charger": 9006,
      "bled": 9007,
      "THAT": 9008,
      "包装盒": 9009,
      "pedals": 9010,
      "值得一看": 9011,
      "downloading": 9012,
      "LED": 9013,
      "Sometimes": 9014,
      "NEVER": 9015,
      "magic": 9016,
      "eggs": 9017,
      "empty": 9018,
      "select": 9019,
      "comparison": 9020,
      "indeed": 9021,
      "environment": 9022,
      "lestar": 9023,
      "Secret": 9024,
      "160": 9025,
      "Air": 9026,
      "Cy": 9027,
      "Free": 9028,
      "LCD": 9029,
      "Nice": 9030,
      "az": 9031,
      "hun": 9032,
      "hook": 9033,
      "pc": 9034,
      "ram": 9035,
      "acle": 9036,
      "chop": 9037,
      "loaf": 9038,
      "idge": 9039,
      "rib": 9040,
      "vibr": 9041,
      "excess": 9042,
      "hadn": 9043,
      "causes": 9044,
      "agon": 9045,
      "ears": 9046,
      "epil": 9047,
      "2002": 9048,
      "clum": 9049,
      "minis": 9050,
      "trip": 9051,
      "reeze": 9052,
      "chew": 9053,
      "cleaned": 9054,
      "showing": 9055,
      "connecting": 9056,
      "strange": 9057,
      "mixing": 9058,
      "slide": 9059,
      "entirely": 9060,
      "burned": 9061,
      "recent": 9062,
      "graphics": 9063,
      "approach": 9064,
      "appliance": 9065,
      "alternative": 9066,
      "consumer": 9067,
      "Time": 9068,
      "convin": 9069,
      "conclusion": 9070,
      "Renesme": 9071,
      "stairs": 9072,
      "individual": 9073,
      "Delux": 9074,
      "Front": 9075,
      "GA": 9076,
      "Im": 9077,
      "ION": 9078,
      "Ipod": 9079,
      "bars": 9080,
      "cuff": 9081,
      "flip": 9082,
      "mate": 9083,
      "一块": 9084,
      "不爽": 9085,
      "两年": 9086,
      "以下": 9087,
      "作用": 9088,
      "做到": 9089,
      "再次": 9090,
      "半天": 9091,
      "原装": 9092,
      "好用": 9093,
      "好象": 9094,
      "娱乐": 9095,
      "定价": 9096,
      "小孩子": 9097,
      "形式": 9098,
      "形象": 9099,
      "或许": 9100,
      "战争": 9101,
      "手册": 9102,
      "折扣": 9103,
      "拆开": 9104,
      "接触": 9105,
      "教学": 9106,
      "既然": 9107,
      "最终": 9108,
      "现代": 9109,
      "科学": 9110,
      "程序": 9111,
      "笔记": 9112,
      "精装": 9113,
      "运费": 9114,
      "长时间": 9115,
      "难以": 9116,
      "ercial": 9117,
      "theater": 9118,
      "tori": 9119,
      "ford": 9120,
      "forth": 9121,
      "tired": 9122,
      "among": 9123,
      "shuff": 9124,
      "cant": 9125,
      "oung": 9126,
      "viewing": 9127,
      "grou": 9128,
      "coffeemaker": 9129,
      "音乐会": 9130,
      "writers": 9131,
      "cuts": 9132,
      "drinking": 9133,
      "musical": 9134,
      "seasons": 9135,
      "superior": 9136,
      "Turbotax": 9137,
      "slower": 9138,
      "instruction": 9139,
      "appeal": 9140,
      "Adv": 9141,
      "novels": 9142,
      "flawlessly": 9143,
      "secret": 9144,
      "recipe": 9145,
      "details": 9146,
      "售后服务": 9147,
      "susp": 9148,
      "Small": 9149,
      "predict": 9150,
      "potential": 9151,
      "noisy": 9152,
      "总的来说": 9153,
      "awkward": 9154,
      "320": 9155,
      "CON": 9156,
      "El": 9157,
      "Last": 9158,
      "Ret": 9159,
      "Your": 9160,
      "breeze": 9161,
      "cate": 9162,
      "eating": 9163,
      "lon": 9164,
      "refill": 9165,
      "ened": 9166,
      "rock": 9167,
      "chall": 9168,
      "neat": 9169,
      "wearing": 9170,
      "worried": 9171,
      "delic": 9172,
      "fruit": 9173,
      "imprinting": 9174,
      "quit": 9175,
      "causing": 9176,
      "prices": 9177,
      "dio": 9178,
      "trial": 9179,
      "lighting": 9180,
      "prevent": 9181,
      "Ange": 9182,
      "knowing": 9183,
      "spect": 9184,
      "storyline": 9185,
      "freeze": 9186,
      "controls": 9187,
      "originally": 9188,
      "visual": 9189,
      "remote": 9190,
      "shock": 9191,
      "Princess": 9192,
      "acceptable": 9193,
      "vacuum": 9194,
      "investment": 9195,
      "Bottom": 9196,
      "companies": 9197,
      "comedy": 9198,
      "Copy": 9199,
      "Battlestar": 9200,
      "Deluxe": 9201,
      "Frontline": 9202,
      "Bar": 9203,
      "Bad": 9204,
      "Back": 9205,
      "CC": 9206,
      "Gi": 9207,
      "Mr": 9208,
      "OO": 9209,
      "Sun": 9210,
      "Young": 9211,
      "eve": 9212,
      "jud": 9213,
      "rich": 9214,
      "不住": 9215,
      "今年": 9216,
      "光碟": 9217,
      "出品": 9218,
      "加油": 9219,
      "只好": 9220,
      "回到": 9221,
      "外包装": 9222,
      "大部分": 9223,
      "官方": 9224,
      "容量": 9225,
      "年轻": 9226,
      "开发": 9227,
      "很小": 9228,
      "按键": 9229,
      "效率": 9230,
      "旋律": 9231,
      "机会": 9232,
      "某些": 9233,
      "状态": 9234,
      "现实": 9235,
      "病毒": 9236,
      "看见": 9237,
      "稍微": 9238,
      "箱子": 9239,
      "经过": 9240,
      "网友": 9241,
      "考试": 9242,
      "而言": 9243,
      "说实话": 9244,
      "过于": 9245,
      "这点": 9246,
      "遇到": 9247,
      "配置": 9248,
      "预售": 9249,
      "reve": 9250,
      "ordin": 9251,
      "stret": 9252,
      "becoming": 9253,
      "ute": 9254,
      "aby": 9255,
      "alled": 9256,
      "oogle": 9257,
      "ury": 9258,
      "irus": 9259,
      "fraid": 9260,
      "erson": 9261,
      "discus": 9262,
      "whose": 9263,
      "Note": 9264,
      "怎么样": 9265,
      "ships": 9266,
      "avid": 9267,
      "worthless": 9268,
      "cooker": 9269,
      "colors": 9270,
      "elsewhere": 9271,
      "mainly": 9272,
      "superhero": 9273,
      "places": 9274,
      "summer": 9275,
      "limsy": 9276,
      "virt": 9277,
      "impressive": 9278,
      "Blue": 9279,
      "television": 9280,
      "India": 9281,
      "Saitek": 9282,
      "03": 9283,
      "Act": 9284,
      "Big": 9285,
      "Day": 9286,
      "HU": 9287,
      "Next": 9288,
      "Sor": 9289,
      "VHS": 9290,
      "aves": 9291,
      "kn": 9292,
      "pher": 9293,
      "tes": 9294,
      "vend": 9295,
      "wind": 9296,
      "activ": 9297,
      "beha": 9298,
      "wifi": 9299,
      "lls": 9300,
      "lling": 9301,
      "ches": 9302,
      "meat": 9303,
      "washer": 9304,
      "libr": 9305,
      "neither": 9306,
      "thernet": 9307,
      "ressed": 9308,
      "grade": 9309,
      "spin": 9310,
      "recommendation": 9311,
      "wake": 9312,
      "Asus": 9313,
      "amazed": 9314,
      "systems": 9315,
      "messages": 9316,
      "choices": 9317,
      "cards": 9318,
      "ators": 9319,
      "sucks": 9320,
      "pulling": 9321,
      "factor": 9322,
      "teenage": 9323,
      "snap": 9324,
      "Support": 9325,
      "System": 9326,
      "adequate": 9327,
      "98": 9328,
      "AMA": 9329,
      "Bill": 9330,
      "Jack": 9331,
      "Nor": 9332,
      "WAS": 9333,
      "afraid": 9334,
      "bill": 9335,
      "eper": 9336,
      "flimsy": 9337,
      "tap": 9338,
      "tank": 9339,
      "一会": 9340,
      "三国": 9341,
      "上市": 9342,
      "上次": 9343,
      "交响": 9344,
      "付款": 9345,
      "优秀": 9346,
      "优美": 9347,
      "伟大": 9348,
      "出色": 9349,
      "到位": 9350,
      "古典": 9351,
      "启儒": 9352,
      "回答": 9353,
      "恭维": 9354,
      "日语": 9355,
      "有货": 9356,
      "比起": 9357,
      "消息": 9358,
      "眼睛": 9359,
      "答复": 9360,
      "简体": 9361,
      "记忆": 9362,
      "说话": 9363,
      "身边": 9364,
      "进去": 9365,
      "连续": 9366,
      "邮件": 9367,
      "郭启儒": 9368,
      "镜头": 9369,
      "难得": 9370,
      "音量": 9371,
      "骗人": 9372,
      "stage": 9373,
      "oma": 9374,
      "beard": 9375,
      "ros": 9376,
      "meth": 9377,
      "meant": 9378,
      "compet": 9379,
      "irt": 9380,
      "depart": 9381,
      "Three": 9382,
      "convert": 9383,
      "ideas": 9384,
      "hole": 9385,
      "ured": 9386,
      "inten": 9387,
      "news": 9388,
      "spire": 9389,
      "finds": 9390,
      "calling": 9391,
      "clock": 9392,
      "ONLY": 9393,
      "Heath": 9394,
      "pathetic": 9395,
      "ski": 9396,
      "第二天": 9397,
      "protection": 9398,
      "affect": 9399,
      "afford": 9400,
      "不得不": 9401,
      "数据线": 9402,
      "involved": 9403,
      "Volturi": 9404,
      "waffle": 9405,
      "Ultra": 9406,
      "Apparently": 9407,
      "thoroughly": 9408,
      "policy": 9409,
      "Creat": 9410,
      "Mart": 9411,
      "Sad": 9412,
      "Tru": 9413,
      "Win": 9414,
      "dar": 9415,
      "fash": 9416,
      "nature": 9417,
      "rin": 9418,
      "rules": 9419,
      "encounter": 9420,
      "arily": 9421,
      "beep": 9422,
      "rig": 9423,
      "cheese": 9424,
      "decision": 9425,
      "Pros": 9426,
      "dropping": 9427,
      "Need": 9428,
      "doctor": 9429,
      "increase": 9430,
      "constant": 9431,
      "MSI": 9432,
      "attachments": 9433,
      "advanced": 9434,
      "yesterday": 9435,
      "compatibility": 9436,
      "claims": 9437,
      "OME": 9438,
      "Sonicare": 9439,
      "Books": 9440,
      "Class": 9441,
      "calibr": 9442,
      "Zoj": 9443,
      "Ben": 9444,
      "Gone": 9445,
      "SON": 9446,
      "TE": 9447,
      "mad": 9448,
      "zes": 9449,
      "一代": 9450,
      "一集": 9451,
      "世纪": 9452,
      "买个": 9453,
      "事实": 9454,
      "刚买": 9455,
      "华纳": 9456,
      "变形": 9457,
      "口气": 9458,
      "合适": 9459,
      "因此": 9460,
      "套书": 9461,
      "安静": 9462,
      "对比": 9463,
      "平时": 9464,
      "心中": 9465,
      "忽悠": 9466,
      "我刚": 9467,
      "所值": 9468,
      "拍摄": 9469,
      "插图": 9470,
      "无聊": 9471,
      "果然": 9472,
      "然而": 9473,
      "爵士": 9474,
      "营销": 9475,
      "超市": 9476,
      "通俗": 9477,
      "键盘": 9478,
      "限量": 9479,
      "验货": 9480,
      "thous": 9481,
      "asking": 9482,
      "aled": 9483,
      "hearing": 9484,
      "member": 9485,
      "liqu": 9486,
      "apple": 9487,
      "hoped": 9488,
      "shel": 9489,
      "spective": 9490,
      "UST": 9491,
      "THER": 9492,
      "Alice": 9493,
      "packed": 9494,
      "portion": 9495,
      "task": 9496,
      "printed": 9497,
      "firewall": 9498,
      "待机时间": 9499,
      "shoot": 9500,
      "Okay": 9501,
      "typical": 9502,
      "Despite": 9503,
      "electronic": 9504,
      "chapter": 9505,
      "puppy": 9506,
      "06": 9507,
      "Bel": 9508,
      "Care": 9509,
      "FS": 9510,
      "Jan": 9511,
      "Loo": 9512,
      "Mus": 9513,
      "Osc": 9514,
      "bps": 9515,
      "kne": 9516,
      "oil": 9517,
      "input": 9518,
      "represent": 9519,
      "icon": 9520,
      "rip": 9521,
      "usage": 9522,
      "comend": 9523,
      "pol": 9524,
      "god": 9525,
      "qual": 9526,
      "code": 9527,
      "bling": 9528,
      "transactions": 9529,
      "logical": 9530,
      "formatting": 9531,
      "tested": 9532,
      "depth": 9533,
      "lucky": 9534,
      "cases": 9535,
      "spring": 9536,
      "thrown": 9537,
      "ACT": 9538,
      "animated": 9539,
      "Simple": 9540,
      "traditional": 9541,
      "Outlook": 9542,
      "occasionally": 9543,
      "Little": 9544,
      "villain": 9545,
      "shuffle": 9546,
      "Sorry": 9547,
      "700": 9548,
      "Cor": 9549,
      "MV": 9550,
      "RA": 9551,
      "Way": 9552,
      "dd": 9553,
      "oh": 9554,
      "scan": 9555,
      "买到": 9556,
      "二十": 9557,
      "人性": 9558,
      "仅仅": 9559,
      "原著": 9560,
      "回去": 9561,
      "声道": 9562,
      "太小": 9563,
      "太快": 9564,
      "太过": 9565,
      "学校": 9566,
      "广州": 9567,
      "很值": 9568,
      "收入": 9569,
      "是从": 9570,
      "有效": 9571,
      "熟悉": 9572,
      "爸爸": 9573,
      "物超": 9574,
      "相对": 9575,
      "竞争": 9576,
      "第四": 9577,
      "解说": 9578,
      "运行": 9579,
      "造成": 9580,
      "随着": 9581,
      "高音": 9582,
      "rely": 9583,
      "refle": 9584,
      "edge": 9585,
      "seat": 9586,
      "iction": 9587,
      "advent": 9588,
      "usive": 9589,
      "unity": 9590,
      "fees": 9591,
      "frame": 9592,
      "resist": 9593,
      "igno": 9594,
      "greatest": 9595,
      "commercial": 9596,
      "corrup": 9597,
      "former": 9598,
      "lasts": 9599,
      "render": 9600,
      "第一部": 9601,
      "register": 9602,
      "dram": 9603,
      "Defin": 9604,
      "sites": 9605,
      "learning": 9606,
      "EST": 9607,
      "CHI": 9608,
      "advantage": 9609,
      "satisf": 9610,
      "boyfriend": 9611,
      "upgrading": 9612,
      "不敢恭维": 9613,
      "rottle": 9614,
      "named": 9615,
      "充电器": 9616,
      "Robert": 9617,
      "communic": 9618,
      "exercise": 9619,
      "豪华版": 9620,
      "troubles": 9621,
      "AMAZ": 9622,
      "Classic": 9623,
      "物超所值": 9624,
      "88": 9625,
      "Clean": 9626,
      "Dire": 9627,
      "DATE": 9628,
      "Each": 9629,
      "Ext": 9630,
      "Eee": 9631,
      "Gold": 9632,
      "Sci": 9633,
      "Tro": 9634,
      "UCT": 9635,
      "bun": 9636,
      "hur": 9637,
      "rarely": 9638,
      "thinks": 9639,
      "ination": 9640,
      "erob": 9641,
      "tow": 9642,
      "aside": 9643,
      "stun": 9644,
      "heck": 9645,
      "rope": 9646,
      "ghter": 9647,
      "abilities": 9648,
      "soever": 9649,
      "delete": 9650,
      "pets": 9651,
      "apply": 9652,
      "exe": 9653,
      "antum": 9654,
      "caught": 9655,
      "bug": 9656,
      "achie": 9657,
      "whatsoever": 9658,
      "science": 9659,
      "spread": 9660,
      "poses": 9661,
      "ordering": 9662,
      "breaks": 9663,
      "crack": 9664,
      "plugging": 9665,
      "personally": 9666,
      "weekend": 9667,
      "brushing": 9668,
      "chocolate": 9669,
      "sleek": 9670,
      "normally": 9671,
      "passion": 9672,
      "flaws": 9673,
      "green": 9674,
      "graphy": 9675,
      "sequences": 9676,
      "successful": 9677,
      "critic": 9678,
      "accident": 9679,
      "budget": 9680,
      "sync": 9681,
      "pounds": 9682,
      "Renesmee": 9683,
      "behavi": 9684,
      "library": 9685,
      "Creative": 9686,
      "fashion": 9687,
      "liquid": 9688,
      "900": 9689,
      "Are": 9690,
      "Coffee": 9691,
      "HBO": 9692,
      "MU": 9693,
      "Phi": 9694,
      "Pot": 9695,
      "Using": 9696,
      "bath": 9697,
      "cult": 9698,
      "gun": 9699,
      "har": 9700,
      "hill": 9701,
      "iMac": 9702,
      "sister": 9703,
      "ube": 9704,
      "uck": 9705,
      "va": 9706,
      "wit": 9707,
      "一共": 9708,
      "不算": 9709,
      "不说": 9710,
      "专集": 9711,
      "主人": 9712,
      "之珏": 9713,
      "书里": 9714,
      "人心": 9715,
      "人民": 9716,
      "体验": 9717,
      "例子": 9718,
      "保存": 9719,
      "保持": 9720,
      "全集": 9721,
      "压缩": 9722,
      "原声": 9723,
      "发出": 9724,
      "发表": 9725,
      "取消": 9726,
      "变得": 9727,
      "国外": 9728,
      "国语": 9729,
      "天天": 9730,
      "太慢": 9731,
      "字体": 9732,
      "定制": 9733,
      "尽管": 9734,
      "干净": 9735,
      "录制": 9736,
      "必要": 9737,
      "感人": 9738,
      "挺不错": 9739,
      "描述": 9740,
      "搞笑": 9741,
      "收货": 9742,
      "明天": 9743,
      "智慧": 9744,
      "材料": 9745,
      "枯燥": 9746,
      "检查": 9747,
      "爱好": 9748,
      "瑞星": 9749,
      "皮肤": 9750,
      "至今": 9751,
      "节奏": 9752,
      "证明": 9753,
      "误导": 9754,
      "这方面": 9755,
      "ered": 9756,
      "encour": 9757,
      "aries": 9758,
      "states": 9759,
      "soph": 9760,
      "weigh": 9761,
      "fear": 9762,
      "omega": 9763,
      "perspective": 9764,
      "whenever": 9765,
      "ersion": 9766,
      "buck": 9767,
      "hol": 9768,
      "retri": 9769,
      "clicking": 9770,
      "charges": 9771,
      "supported": 9772,
      "sym": 9773,
      "disappe": 9774,
      "closer": 9775,
      "Form": 9776,
      "replacing": 9777,
      "brushes": 9778,
      "Meyers": 9779,
      "calories": 9780,
      "hopefully": 9781,
      "strongly": 9782,
      "promise": 9783,
      "popcorn": 9784,
      "steel": 9785,
      "不太好": 9786,
      "leading": 9787,
      "approx": 9788,
      "entertainment": 9789,
      "distur": 9790,
      "Update": 9791,
      "energy": 9792,
      "terrific": 9793,
      "有限公司": 9794,
      "attractive": 9795,
      "method": 9796,
      "33": 9797,
      "Cont": 9798,
      "Key": 9799,
      "Mack": 9800,
      "Pri": 9801,
      "aerob": 9802,
      "hous": 9803,
      "iest": 9804,
      "lb": 9805,
      "lists": 9806,
      "mount": 9807,
      "opp": 9808,
      "pill": 9809,
      "sink": 9810,
      "sale": 9811,
      "tension": 9812,
      "theme": 9813,
      "itary": 9814,
      "forums": 9815,
      "loaves": 9816,
      "idence": 9817,
      "female": 9818,
      "cep": 9819,
      "def": 9820,
      "dete": 9821,
      "viewer": 9822,
      "filing": 9823,
      "White": 9824,
      "purse": 9825,
      "creep": 9826,
      "survi": 9827,
      "menus": 9828,
      "related": 9829,
      "path": 9830,
      "gins": 9831,
      "happening": 9832,
      "brother": 9833,
      "skip": 9834,
      "listed": 9835,
      "fourth": 9836,
      "faces": 9837,
      "penny": 9838,
      "consistently": 9839,
      "graphic": 9840,
      "location": 9841,
      "damage": 9842,
      "America": 9843,
      "bonus": 9844,
      "Harry": 9845,
      "UPDATE": 9846,
      "student": 9847,
      "group": 9848,
      "05": 9849,
      "46": 9850,
      "Bride": 9851,
      "DON": 9852,
      "EVERY": 9853,
      "Got": 9854,
      "Gener": 9855,
      "IA": 9856,
      "Ness": 9857,
      "Port": 9858,
      "Ta": 9859,
      "aff": 9860,
      "bits": 9861,
      "dust": 9862,
      "gro": 9863,
      "lad": 9864,
      "mature": 9865,
      "soo": 9866,
      "turbo": 9867,
      "zard": 9868,
      "上午": 9869,
      "东方": 9870,
      "中午": 9871,
      "中英文": 9872,
      "代表": 9873,
      "伤心": 9874,
      "保修": 9875,
      "具有": 9876,
      "去年": 9877,
      "否则": 9878,
      "听过": 9879,
      "夏新": 9880,
      "多久": 9881,
      "奇怪": 9882,
      "好几": 9883,
      "小朋友": 9884,
      "幼儿": 9885,
      "开机": 9886,
      "强大": 9887,
      "得起": 9888,
      "惊喜": 9889,
      "摄影": 9890,
      "放心": 9891,
      "数码": 9892,
      "新专辑": 9893,
      "时期": 9894,
      "有关": 9895,
      "杂志": 9896,
      "毫无": 9897,
      "生动": 9898,
      "用过": 9899,
      "相关": 9900,
      "答案": 9901,
      "获得": 9902,
      "观看": 9903,
      "角色": 9904,
      "责任": 9905,
      "足够": 9906,
      "身体": 9907,
      "这位": 9908,
      "钢琴": 9909,
      "难度": 9910,
      "面上": 9911,
      "面对": 9912,
      "预计": 9913,
      "骗子": 9914,
      "itude": 9915,
      "alle": 9916,
      "alum": 9917,
      "static": 9918,
      "lect": 9919,
      "chi": 9920,
      "adults": 9921,
      "tip": 9922,
      "ays": 9923,
      "moon": 9924,
      "notes": 9925,
      "exter": 9926,
      "existing": 9927,
      "ify": 9928,
      "frag": 9929,
      "grain": 9930,
      "drip": 9931,
      "Intel": 9932,
      "charm": 9933,
      "blu": 9934,
      "connector": 9935,
      "flour": 9936,
      "ggy": 9937,
      "guide": 9938,
      "cleaner": 9939,
      "shake": 9940,
      "breath": 9941,
      "kettle": 9942,
      "reasonably": 9943,
      "ANT": 9944,
      "capable": 9945,
      "famous": 9946,
      "故事情节": 9947,
      "Stark": 9948,
      "maintain": 9949,
      "broad": 9950,
      "planning": 9951,
      "copies": 9952,
      "operation": 9953,
      "emails": 9954,
      "truth": 9955,
      "removing": 9956,
      "tasks": 9957,
      "navi": 9958,
      "apartment": 9959,
      "listening": 9960,
      "tasting": 9961,
      "vacation": 9962,
      "pregnancy": 9963,
      "Drink": 9964,
      "不怎么样": 9965,
      "shooting": 9966,
      "microphone": 9967,
      "refused": 9968,
      "Cruzer": 9969,
      "determin": 9970,
      "dishwasher": 9971,
      "pleasant": 9972,
      "gadget": 9973,
      "accompl": 9974,
      "vendor": 9975,
      "848": 9976,
      "Dow": 9977,
      "IM": 9978,
      "NT": 9979,
      "OP": 9980,
      "Prem": 9981,
      "Rac": 9982,
      "Rep": 9983,
      "Right": 9984,
      "Sand": 9985,
      "Wow": 9986,
      "awhile": 9987,
      "cin": 9988,
      "cab": 9989,
      "cables": 9990,
      "lame": 9991,
      "sight": 9992,
      "threw": 9993,
      "recover": 9994,
      "towards": 9995,
      "encry": 9996,
      "aly": 9997,
      "leep": 9998,
      "thats": 9999,
      "upset": 10000,
      "ula": 10001,
      "cot": 10002,
      "cape": 10003,
      "serial": 10004,
      "happily": 10005,
      "specially": 10006,
      "owner": 10007,
      "badly": 10008,
      "talent": 10009,
      "talked": 10010,
      "counting": 10011,
      "genre": 10012,
      "receiving": 10013,
      "ATA": 10014,
      "wondering": 10015,
      "Quantum": 10016,
      "slowly": 10017,
      "stops": 10018,
      "walked": 10019,
      "creative": 10020,
      "IPOD": 10021,
      "killed": 10022,
      "animation": 10023,
      "Mini": 10024,
      "hype": 10025,
      "Huggies": 10026,
      "BSG": 10027,
      "About": 10028,
      "mechanism": 10029,
      "dentist": 10030,
      "conflict": 10031,
      "religion": 10032,
      "ribbon": 10033,
      "categ": 10034,
      "irushi": 10035,
      "Zojirushi": 10036,
      "aerobic": 10037,
      "Downey": 10038,
      "1200": 10039,
      "Aspire": 10040,
      "Fed": 10041,
      "PD": 10042,
      "Router": 10043,
      "SH": 10044,
      "Shi": 10045,
      "baking": 10046,
      "eli": 10047,
      "hat": 10048,
      "ral": 10049,
      "stoo": 10050,
      "slip": 10051,
      "sizes": 10052,
      "一周": 10053,
      "一条": 10054,
      "一步": 10055,
      "一流": 10056,
      "一辈": 10057,
      "一口气": 10058,
      "七八": 10059,
      "上门": 10060,
      "不断": 10061,
      "不论": 10062,
      "专家": 10063,
      "乐团": 10064,
      "产生": 10065,
      "优势": 10066,
      "再说": 10067,
      "冲着": 10068,
      "删减": 10069,
      "半个": 10070,
      "厚道": 10071,
      "反而": 10072,
      "受到": 10073,
      "句子": 10074,
      "吉他": 10075,
      "商家": 10076,
      "复杂": 10077,
      "小小": 10078,
      "序列": 10079,
      "想想": 10080,
      "报告": 10081,
      "最高": 10082,
      "标题": 10083,
      "案例": 10084,
      "特色": 10085,
      "玩家": 10086,
      "瑜伽": 10087,
      "男人": 10088,
      "真不": 10089,
      "礼物": 10090,
      "程度": 10091,
      "糟糕": 10092,
      "素质": 10093,
      "翻唱": 10094,
      "老板": 10095,
      "行业": 10096,
      "表示": 10097,
      "装订": 10098,
      "观众": 10099,
      "送人": 10100,
      "income": 10101,
      "era": 10102,
      "restart": 10103,
      "ene": 10104,
      "ington": 10105,
      "alt": 10106,
      "aran": 10107,
      "aces": 10108,
      "beware": 10109,
      "chat": 10110,
      "mob": 10111,
      "motiv": 10112,
      "keting": 10113,
      "unnecessary": 10114,
      "irty": 10115,
      "cei": 10116,
      "ceed": 10117,
      "Thunder": 10118,
      "explan": 10119,
      "dual": 10120,
      "sugar": 10121,
      "agic": 10122,
      "grab": 10123,
      "discover": 10124,
      "foil": 10125,
      "epic": 10126,
      "lightweight": 10127,
      "prepar": 10128,
      "wrist": 10129,
      "happier": 10130,
      "didnt": 10131,
      "aws": 10132,
      "Macs": 10133,
      "belief": 10134,
      "送货员": 10135,
      "planet": 10136,
      "religi": 10137,
      "touchpad": 10138,
      "password": 10139,
      "Howard": 10140,
      "firewire": 10141,
      "看不下去": 10142,
      "PROD": 10143,
      "ICE": 10144,
      "tastes": 10145,
      "folder": 10146,
      "ultimately": 10147,
      "Colle": 10148,
      "routine": 10149,
      "essentially": 10150,
      "Charlie": 10151,
      "大多数": 10152,
      "cartoon": 10153,
      "promptly": 10154,
      "Tropic": 10155,
      "Drinkwell": 10156,
      "31": 10157,
      "CG": 10158,
      "Eyes": 10159,
      "French": 10160,
      "MX": 10161,
      "Open": 10162,
      "Tran": 10163,
      "bound": 10164,
      "cit": 10165,
      "mere": 10166,
      "pas": 10167,
      "pun": 10168,
      "sits": 10169,
      "stom": 10170,
      "score": 10171,
      "tall": 10172,
      "vy": 10173,
      "thru": 10174,
      "throttle": 10175,
      "esy": 10176,
      "stal": 10177,
      "stab": 10178,
      "height": 10179,
      "heavi": 10180,
      "bella": 10181,
      "term": 10182,
      "chick": 10183,
      "lived": 10184,
      "cts": 10185,
      "maid": 10186,
      "plates": 10187,
      "trick": 10188,
      "tear": 10189,
      "anten": 10190,
      "agre": 10191,
      "reads": 10192,
      "opard": 10193,
      "knowledge": 10194,
      "highest": 10195,
      "netgear": 10196,
      "guard": 10197,
      "undercoat": 10198,
      "extended": 10199,
      "expense": 10200,
      "calcul": 10201,
      "World": 10202,
      "primary": 10203,
      "accuracy": 10204,
      "humanity": 10205,
      "shopping": 10206,
      "beauty": 10207,
      "offering": 10208,
      "dryer": 10209,
      "distance": 10210,
      "Harvey": 10211,
      "reduced": 10212,
      "narr": 10213,
      "Hopefully": 10214,
      "specifically": 10215,
      "contrast": 10216,
      "Flash": 10217,
      "Frank": 10218,
      "Return": 10219,
      "Belkin": 10220,
      "Nessie": 10221,
      "PRODUCT": 10222,
      "38": 10223,
      "66": 10224,
      "Bus": 10225,
      "Fu": 10226,
      "FUR": 10227,
      "QB": 10228,
      "Res": 10229,
      "RMA": 10230,
      "ROM": 10231,
      "Vine": 10232,
      "Zune": 10233,
      "bay": 10234,
      "bang": 10235,
      "bank": 10236,
      "cers": 10237,
      "eved": 10238,
      "hid": 10239,
      "mur": 10240,
      "pace": 10241,
      "pitch": 10242,
      "yard": 10243,
      "zip": 10244,
      "信任": 10245,
      "儿歌": 10246,
      "光驱": 10247,
      "全球": 10248,
      "兴奋": 10249,
      "创作": 10250,
      "厉之珏": 10251,
      "原价": 10252,
      "启发": 10253,
      "多么": 10254,
      "大众": 10255,
      "太好": 10256,
      "太少": 10257,
      "太高": 10258,
      "学友": 10259,
      "完后": 10260,
      "宝贝": 10261,
      "实物": 10262,
      "对得起": 10263,
      "张学友": 10264,
      "当地": 10265,
      "思维": 10266,
      "性格": 10267,
      "总结": 10268,
      "提出": 10269,
      "日期": 10270,
      "更新": 10271,
      "有个": 10272,
      "正确": 10273,
      "淡淡": 10274,
      "满足": 10275,
      "漫画": 10276,
      "物有所": 10277,
      "玩具": 10278,
      "理想": 10279,
      "看得": 10280,
      "矛盾": 10281,
      "神秘": 10282,
      "粤语": 10283,
      "红色": 10284,
      "结尾": 10285,
      "老人": 10286,
      "职场": 10287,
      "联想": 10288,
      "说法": 10289,
      "读完": 10290,
      "资源": 10291,
      "配乐": 10292,
      "配件": 10293,
      "音色": 10294,
      "ann": 10295,
      "asp": 10296,
      "beans": 10297,
      "abled": 10298,
      "aming": 10299,
      "uninstall": 10300,
      "conver": 10301,
      "shower": 10302,
      "gold": 10303,
      "estab": 10304,
      "compon": 10305,
      "manner": 10306,
      "timate": 10307,
      "wrap": 10308,
      "connectivity": 10309,
      "ruined": 10310,
      "pointed": 10311,
      "checking": 10312,
      "pressing": 10313,
      "USE": 10314,
      "guaran": 10315,
      "ody": 10316,
      "ERS": 10317,
      "leted": 10318,
      "marketing": 10319,
      "China": 10320,
      "PCs": 10321,
      "画面质量": 10322,
      "arent": 10323,
      "superb": 10324,
      "ASUS": 10325,
      "Without": 10326,
      "清晰度": 10327,
      "understanding": 10328,
      "regularly": 10329,
      "ustral": 10330,
      "exciting": 10331,
      "levels": 10332,
      "Keep": 10333,
      "beautifully": 10334,
      "crashes": 10335,
      "mission": 10336,
      "anticip": 10337,
      "无论是": 10338,
      "People": 10339,
      "werewolf": 10340,
      "radio": 10341,
      "笔记本": 10342,
      "predictable": 10343,
      "delicious": 10344,
      "ordinary": 10345,
      "discuss": 10346,
      "behavior": 10347,
      "opport": 10348,
      "序列号": 10349,
      "物有所值": 10350,
      "42": 10351,
      "625": 10352,
      "Bread": 10353,
      "Batter": 10354,
      "EM": 10355,
      "IMA": 10356,
      "Moo": 10357,
      "Mill": 10358,
      "Ob": 10359,
      "Pin": 10360,
      "Ped": 10361,
      "QU": 10362,
      "Sling": 10363,
      "craft": 10364,
      "efficient": 10365,
      "lab": 10366,
      "lers": 10367,
      "oz": 10368,
      "rat": 10369,
      "sun": 10370,
      "skept": 10371,
      "isco": 10372,
      "according": 10373,
      "accounts": 10374,
      "loving": 10375,
      "configure": 10376,
      "ified": 10377,
      "ometers": 10378,
      "tec": 10379,
      "shallow": 10380,
      "shift": 10381,
      "shiny": 10382,
      "dull": 10383,
      "arts": 10384,
      "disgust": 10385,
      "backed": 10386,
      "instant": 10387,
      "Which": 10388,
      "managed": 10389,
      "corpor": 10390,
      "adds": 10391,
      "channel": 10392,
      "networks": 10393,
      "networking": 10394,
      "babies": 10395,
      "helping": 10396,
      "INE": 10397,
      "headphones": 10398,
      "capability": 10399,
      "switching": 10400,
      "recorded": 10401,
      "formatted": 10402,
      "lacking": 10403,
      "begins": 10404,
      "shocked": 10405,
      "describe": 10406,
      "chain": 10407,
      "growing": 10408,
      "frustration": 10409,
      "walls": 10410,
      "damaged": 10411,
      "emotions": 10412,
      "OFF": 10413,
      "PRO": 10414,
      "Shack": 10415,
      "hundreds": 10416,
      "construction": 10417,
      "Angel": 10418,
      "stretch": 10419,
      "Definitely": 10420,
      "town": 10421,
      "MUCH": 10422,
      "Potter": 10423,
      "Sandisk": 10424,
      "murder": 10425,
      "Moore": 10426,
      "02": 10427,
      "Austral": 10428,
      "City": 10429,
      "Clar": 10430,
      "Eve": 10431,
      "Has": 10432,
      "Ye": 10433,
      "dru": 10434,
      "field": 10435,
      "gers": 10436,
      "glit": 10437,
      "iently": 10438,
      "rain": 10439,
      "sin": 10440,
      "一场": 10441,
      "下面": 10442,
      "不但": 10443,
      "不愧": 10444,
      "两本": 10445,
      "人士": 10446,
      "以来": 10447,
      "似的": 10448,
      "信心": 10449,
      "做法": 10450,
      "偶尔": 10451,
      "全新": 10452,
      "冠军": 10453,
      "几句": 10454,
      "出手": 10455,
      "制滥": 10456,
      "动物": 10457,
      "原本": 10458,
      "发票": 10459,
      "商店": 10460,
      "在于": 10461,
      "型号": 10462,
      "如今": 10463,
      "学会": 10464,
      "完好": 10465,
      "山寨": 10466,
      "差别": 10467,
      "带给": 10468,
      "当天": 10469,
      "心态": 10470,
      "成本": 10471,
      "拒收": 10472,
      "收音": 10473,
      "教授": 10474,
      "教程": 10475,
      "有种": 10476,
      "有时候": 10477,
      "来讲": 10478,
      "概念": 10479,
      "气愤": 10480,
      "深深": 10481,
      "片头": 10482,
      "牌子": 10483,
      "物品": 10484,
      "独特": 10485,
      "环球": 10486,
      "留下": 10487,
      "相差": 10488,
      "确定": 10489,
      "离谱": 10490,
      "类型": 10491,
      "粗制滥": 10492,
      "结合": 10493,
      "结束": 10494,
      "耳朵": 10495,
      "英雄": 10496,
      "表面": 10497,
      "论坛": 10498,
      "貌似": 10499,
      "过瘾": 10500,
      "还行": 10501,
      "鄙视": 10502,
      "针对": 10503,
      "高清": 10504,
      "threat": 10505,
      "reboo": 10506,
      "toler": 10507,
      "ites": 10508,
      "stress": 10509,
      "chest": 10510,
      "unusable": 10511,
      "delight": 10512,
      "trail": 10513,
      "polit": 10514,
      "bored": 10515,
      "plement": 10516,
      "ours": 10517,
      "instance": 10518,
      "newborn": 10519,
      "playback": 10520,
      "psy": 10521,
      "loading": 10522,
[...]
